{
  "version": "1.0",
  "truncation": {
    "direction": "Right",
    "max_length": 2048,
    "strategy": "LongestFirst",
    "stride": 0
  },
  "padding": {
    "strategy": "BatchLongest",
    "direction": "Right",
    "pad_to_multiple_of": null,
    "pad_id": 0,
    "pad_type_id": 0,
    "pad_token": "<pad>"
  },
  "added_tokens": [
    {
      "id": 0,
      "content": "<pad>",
      "single_word": false,
      "lstrip": false,
      "rstrip": false,
      "normalized": false,
      "special": true
    },
    {
      "id": 1,
      "content": "<s>",
      "single_word": false,
      "lstrip": false,
      "rstrip": false,
      "normalized": false,
      "special": true
    },
    {
      "id": 2,
      "content": "</s>",
      "single_word": false,
      "lstrip": false,
      "rstrip": false,
      "normalized": false,
      "special": true
    },
    {
      "id": 3,
      "content": "<unk>",
      "single_word": false,
      "lstrip": false,
      "rstrip": false,
      "normalized": false,
      "special": true
    }
  ],
  "normalizer": {
    "type": "NFKC"
  },
  "pre_tokenizer": {
    "type": "ByteLevel",
    "add_prefix_space": true,
    "trim_offsets": true,
    "use_regex": true
  },
  "post_processor": {
    "type": "TemplateProcessing",
    "single": [
      {
        "SpecialToken": {
          "id": "<s>",
          "type_id": 0
        }
      },
      {
        "Sequence": {
          "id": "A",
          "type_id": 0
        }
      },
      {
        "SpecialToken": {
          "id": "</s>",
          "type_id": 0
        }
      }
    ],
    "pair": [
      {
        "SpecialToken": {
          "id": "<s>",
          "type_id": 0
        }
      },
      {
        "Sequence": {
          "id": "A",
          "type_id": 0
        }
      },
      {
        "SpecialToken": {
          "id": "</s>",
          "type_id": 0
        }
      },
      {
        "SpecialToken": {
          "id": "</s>",
          "type_id": 0
        }
      },
      {
        "Sequence": {
          "id": "B",
          "type_id": 0
        }
      },
      {
        "SpecialToken": {
          "id": "</s>",
          "type_id": 0
        }
      }
    ],
    "special_tokens": {
      "</s>": {
        "id": "</s>",
        "ids": [
          2
        ],
        "tokens": [
          "</s>"
        ]
      },
      "<s>": {
        "id": "<s>",
        "ids": [
          1
        ],
        "tokens": [
          "<s>"
        ]
      }
    }
  },
  "decoder": {
    "type": "ByteLevel",
    "add_prefix_space": true,
    "trim_offsets": true,
    "use_regex": true
  },
  "model": {
    "type": "BPE",
    "dropout": null,
    "unk_token": "<unk>",
    "continuing_subword_prefix": null,
    "end_of_word_suffix": null,
    "fuse_unk": false,
    "byte_fallback": false,
    "ignore_merges": false,
    "vocab": {
      "<pad>": 0,
      "<s>": 1,
      "</s>": 2,
      "<unk>": 3,
      "!": 4,
      "\"": 5,
      "#": 6,
      "$": 7,
      "%": 8,
      "&": 9,
      "'": 10,
      "(": 11,
      ")": 12,
      "*": 13,
      "+": 14,
      ",": 15,
      "-": 16,
      ".": 17,
      "/": 18,
      "0": 19,
      "1": 20,
      "2": 21,
      "3": 22,
      "4": 23,
      "5": 24,
      "6": 25,
      "7": 26,
      "8": 27,
      "9": 28,
      ":": 29,
      ";": 30,
      "<": 31,
      "=": 32,
      ">": 33,
      "?": 34,
      "@": 35,
      "A": 36,
      "B": 37,
      "C": 38,
      "D": 39,
      "E": 40,
      "F": 41,
      "G": 42,
      "H": 43,
      "I": 44,
      "J": 45,
      "K": 46,
      "L": 47,
      "M": 48,
      "N": 49,
      "O": 50,
      "P": 51,
      "Q": 52,
      "R": 53,
      "S": 54,
      "T": 55,
      "U": 56,
      "V": 57,
      "W": 58,
      "X": 59,
      "Y": 60,
      "Z": 61,
      "[": 62,
      "\\": 63,
      "]": 64,
      "^": 65,
      "_": 66,
      "`": 67,
      "a": 68,
      "b": 69,
      "c": 70,
      "d": 71,
      "e": 72,
      "f": 73,
      "g": 74,
      "h": 75,
      "i": 76,
      "j": 77,
      "k": 78,
      "l": 79,
      "m": 80,
      "n": 81,
      "o": 82,
      "p": 83,
      "q": 84,
      "r": 85,
      "s": 86,
      "t": 87,
      "u": 88,
      "v": 89,
      "w": 90,
      "x": 91,
      "y": 92,
      "z": 93,
      "{": 94,
      "|": 95,
      "}": 96,
      "~": 97,
      "¡": 98,
      "¢": 99,
      "£": 100,
      "¤": 101,
      "¥": 102,
      "¦": 103,
      "§": 104,
      "¨": 105,
      "©": 106,
      "ª": 107,
      "«": 108,
      "¬": 109,
      "®": 110,
      "¯": 111,
      "°": 112,
      "±": 113,
      "²": 114,
      "³": 115,
      "´": 116,
      "µ": 117,
      "¶": 118,
      "·": 119,
      "¸": 120,
      "¹": 121,
      "º": 122,
      "»": 123,
      "¼": 124,
      "½": 125,
      "¾": 126,
      "¿": 127,
      "À": 128,
      "Á": 129,
      "Â": 130,
      "Ã": 131,
      "Ä": 132,
      "Å": 133,
      "Æ": 134,
      "Ç": 135,
      "È": 136,
      "É": 137,
      "Ê": 138,
      "Ë": 139,
      "Ì": 140,
      "Í": 141,
      "Î": 142,
      "Ï": 143,
      "Ð": 144,
      "Ñ": 145,
      "Ò": 146,
      "Ó": 147,
      "Ô": 148,
      "Õ": 149,
      "Ö": 150,
      "×": 151,
      "Ø": 152,
      "Ù": 153,
      "Ú": 154,
      "Û": 155,
      "Ü": 156,
      "Ý": 157,
      "Þ": 158,
      "ß": 159,
      "à": 160,
      "á": 161,
      "â": 162,
      "ã": 163,
      "ä": 164,
      "å": 165,
      "æ": 166,
      "ç": 167,
      "è": 168,
      "é": 169,
      "ê": 170,
      "ë": 171,
      "ì": 172,
      "í": 173,
      "î": 174,
      "ï": 175,
      "ð": 176,
      "ñ": 177,
      "ò": 178,
      "ó": 179,
      "ô": 180,
      "õ": 181,
      "ö": 182,
      "÷": 183,
      "ø": 184,
      "ù": 185,
      "ú": 186,
      "û": 187,
      "ü": 188,
      "ý": 189,
      "þ": 190,
      "ÿ": 191,
      "Ā": 192,
      "ā": 193,
      "Ă": 194,
      "ă": 195,
      "Ą": 196,
      "ą": 197,
      "Ć": 198,
      "ć": 199,
      "Ĉ": 200,
      "ĉ": 201,
      "Ċ": 202,
      "ċ": 203,
      "Č": 204,
      "č": 205,
      "Ď": 206,
      "ď": 207,
      "Đ": 208,
      "đ": 209,
      "Ē": 210,
      "ē": 211,
      "Ĕ": 212,
      "ĕ": 213,
      "Ė": 214,
      "ė": 215,
      "Ę": 216,
      "ę": 217,
      "Ě": 218,
      "ě": 219,
      "Ĝ": 220,
      "ĝ": 221,
      "Ğ": 222,
      "ğ": 223,
      "Ġ": 224,
      "ġ": 225,
      "Ģ": 226,
      "ģ": 227,
      "Ĥ": 228,
      "ĥ": 229,
      "Ħ": 230,
      "ħ": 231,
      "Ĩ": 232,
      "ĩ": 233,
      "Ī": 234,
      "ī": 235,
      "Ĭ": 236,
      "ĭ": 237,
      "Į": 238,
      "į": 239,
      "İ": 240,
      "ı": 241,
      "Ĳ": 242,
      "ĳ": 243,
      "Ĵ": 244,
      "ĵ": 245,
      "Ķ": 246,
      "ķ": 247,
      "ĸ": 248,
      "Ĺ": 249,
      "ĺ": 250,
      "Ļ": 251,
      "ļ": 252,
      "Ľ": 253,
      "ľ": 254,
      "Ŀ": 255,
      "ŀ": 256,
      "Ł": 257,
      "ł": 258,
      "Ń": 259,
      "Ġt": 260,
      "he": 261,
      "Ġa": 262,
      "in": 263,
      "Ġw": 264,
      "Ġthe": 265,
      "Ġo": 266,
      "Ġs": 267,
      "čĊ": 268,
      "Ġm": 269,
      "ha": 270,
      "re": 271,
      "Ġb": 272,
      "ĠI": 273,
      "er": 274,
      "nd": 275,
      "ou": 276,
      "Ġto": 277,
      "Ġc": 278,
      "ing": 279,
      "it": 280,
      "on": 281,
      "ll": 282,
      "Ġf": 283,
      "Ġof": 284,
      "Ġp": 285,
      "Ġd": 286,
      "en": 287,
      "as": 288,
      "is": 289,
      "or": 290,
      "ed": 291,
      "hat": 292,
      "ar": 293,
      "Ġin": 294,
      "Ġand": 295,
      "es": 296,
      "an": 297,
      "Ġwas": 298,
      "at": 299,
      "Ġn": 300,
      "Ġha": 301,
      "Ġthat": 302,
      "Ġbe": 303,
      "Ġl": 304,
      "ck": 305,
      "Ġg": 306,
      "Ġh": 307,
      "et": 308,
      "ot": 309,
      "id": 310,
      "ld": 311,
      "ut": 312,
      "Ġst": 313,
      "om": 314,
      "ic": 315,
      "ve": 316,
      "ĠT": 317,
      "Ġit": 318,
      "Ġon": 319,
      "st": 320,
      "ly": 321,
      "ay": 322,
      "ow": 323,
      "Ġth": 324,
      "ion": 325,
      "se": 326,
      "ock": 327,
      "Ġhe": 328,
      "ad": 329,
      "al": 330,
      "Ġe": 331,
      "im": 332,
      "ent": 333,
      "Ġmy": 334,
      "Ġy": 335,
      "ver": 336,
      "Ġme": 337,
      "Ġre": 338,
      "Ġu": 339,
      "Ġfor": 340,
      "gh": 341,
      "Ġpr": 342,
      "le": 343,
      "Ġhad": 344,
      "Ġas": 345,
      "ell": 346,
      "ĠThe": 347,
      "Ġyou": 348,
      "Ġnot": 349,
      "ce": 350,
      "Ġstock": 351,
      "ould": 352,
      "Ġbu": 353,
      "Ġis": 354,
      "ĠS": 355,
      "ct": 356,
      "Ġan": 357,
      "'t": 358,
      "Ġ\"": 359,
      "ke": 360,
      "Ġr": 361,
      "Ġdo": 362,
      "ght": 363,
      "Ġtr": 364,
      "Ġor": 365,
      "ers": 366,
      "Ġmar": 367,
      "Ġat": 368,
      "ket": 369,
      "am": 370,
      "ĠW": 371,
      "Ġmarket": 372,
      "ĠB": 373,
      "ere": 374,
      "ir": 375,
      "ĠA": 376,
      "all": 377,
      "pe": 378,
      "Ġwh": 379,
      "ith": 380,
      "ul": 381,
      "ore": 382,
      "Ġk": 383,
      "oo": 384,
      "ess": 385,
      "her": 386,
      "Ġso": 387,
      "Ġwith": 388,
      "ous": 389,
      "ĠH": 390,
      "Ġne": 391,
      "ch": 392,
      "if": 393,
      "ill": 394,
      "Ġdid": 395,
      "Ġhave": 396,
      "Ġwhe": 397,
      "one": 398,
      "ĠSt": 399,
      "per": 400,
      "Ġall": 401,
      "Ġsu": 402,
      "ice": 403,
      "Ġde": 404,
      "Ġthey": 405,
      "Ġsh": 406,
      "ter": 407,
      "ĠIt": 408,
      "Ġsa": 409,
      "Ġkn": 410,
      "Ġfr": 411,
      "ig": 412,
      "Ġup": 413,
      "Ġman": 414,
      "os": 415,
      "ee": 416,
      "res": 417,
      "ation": 418,
      "red": 419,
      "ight": 420,
      "Ġwould": 421,
      "ort": 422,
      "ain": 423,
      "han": 424,
      "ive": 425,
      "op": 426,
      "Ġtrad": 427,
      "Ġbut": 428,
      "and": 429,
      "Ġex": 430,
      "Ġhis": 431,
      "ake": 432,
      "ur": 433,
      "Ġout": 434,
      "ĠO": 435,
      "Ġsell": 436,
      "ew": 437,
      "ust": 438,
      "Ġhim": 439,
      "Ġpro": 440,
      "Ġwere": 441,
      "out": 442,
      "ip": 443,
      "Ġwhat": 444,
      "ame": 445,
      "Ġtim": 446,
      "em": 447,
      "Ġab": 448,
      "Ġcom": 449,
      "qu": 450,
      "Ġby": 451,
      "our": 452,
      "Ġgo": 453,
      "very": 454,
      "Ġany": 455,
      "Ġthere": 456,
      "Ġcon": 457,
      "Ġbuy": 458,
      "ĠBut": 459,
      "ong": 460,
      "oney": 461,
      "'s": 462,
      "Ġwhen": 463,
      "ant": 464,
      "ĠHe": 465,
      "Ġmoney": 466,
      "Ġone": 467,
      "ge": 468,
      "Ġsaid": 469,
      "Ġsom": 470,
      "ble": 471,
      "Ġal": 472,
      "il": 473,
      "ally": 474,
      "ak": 475,
      "Ġcould": 476,
      "ro": 477,
      "act": 478,
      "hing": 479,
      "ĠM": 480,
      "Ġhu": 481,
      "Ġsha": 482,
      "ate": 483,
      "ator": 484,
      "Ġtime": 485,
      "Ġoff": 486,
      "Ġknow": 487,
      "Ġpl": 488,
      "Ġmore": 489,
      "Ġwho": 490,
      "Ġfrom": 491,
      "est": 492,
      "Ġno": 493,
      "ousand": 494,
      "ie": 495,
      "ence": 496,
      "Ġthousand": 497,
      "Ġco": 498,
      "ked": 499,
      "ist": 500,
      "Ġday": 501,
      "ard": 502,
      "ars": 503,
      "au": 504,
      "ade": 505,
      "ĠN": 506,
      "Ġcan": 507,
      "od": 508,
      "ions": 509,
      "ine": 510,
      "ĠR": 511,
      "Ġabout": 512,
      "Ġthem": 513,
      "ind": 514,
      "pp": 515,
      "Ġbec": 516,
      "lf": 517,
      "Ġun": 518,
      "Ġmade": 519,
      "Ġbeen": 520,
      "ĠP": 521,
      "Ġthan": 522,
      "Ġle": 523,
      "iv": 524,
      "ther": 525,
      "ose": 526,
      ".\"": 527,
      "bl": 528,
      "ndred": 529,
      "Ġshares": 530,
      "Ġget": 531,
      "Ġif": 532,
      "Ġprice": 533,
      "ack": 534,
      "cc": 535,
      "int": 536,
      "art": 537,
      "Ġ$": 538,
      "Ġhundred": 539,
      "Ġint": 540,
      "uch": 541,
      "ĠY": 542,
      "Ġare": 543,
      "Ġpo": 544,
      "ĠStock": 545,
      "ĠE": 546,
      "Ġprof": 547,
      "Ġtw": 548,
      "ause": 549,
      "fter": 550,
      "Ġdidn": 551,
      "sid": 552,
      "Ġsome": 553,
      "Ġad": 554,
      "un": 555,
      "ough": 556,
      "ood": 557,
      "Ġbecause": 558,
      "fore": 559,
      "way": 560,
      "pt": 561,
      "Ġstocks": 562,
      "Ġway": 563,
      "Ġmuch": 564,
      "Ġqu": 565,
      "Ġwor": 566,
      "Ġspe": 567,
      "Ġsee": 568,
      "Ġtold": 569,
      "Ġthis": 570,
      "?\"": 571,
      "ought": 572,
      "Ġgot": 573,
      "ost": 574,
      "Ġmake": 575,
      "Ġbus": 576,
      "ĠC": 577,
      "ty": 578,
      "Ġonly": 579,
      "ick": 580,
      "Ġj": 581,
      "Ġv": 582,
      "Ġfir": 583,
      "Ġag": 584,
      "Ġtheir": 585,
      "Ġbro": 586,
      "perator": 587,
      "Ġse": 588,
      "Ġbig": 589,
      "oss": 590,
      "Ġvery": 591,
      "own": 592,
      "ish": 593,
      "ink": 594,
      "Ġbeg": 595,
      "Ġcour": 596,
      "isc": 597,
      "self": 598,
      "Ġright": 599,
      "Ġam": 600,
      ",\"": 601,
      "able": 602,
      "ance": 603,
      "ĠThat": 604,
      "Ġact": 605,
      "ĠThey": 606,
      "Ġen": 607,
      "Ġwent": 608,
      "Ġother": 609,
      "Ġcourse": 610,
      "Ġprofit": 611,
      "Ġthink": 612,
      "ag": 613,
      "Ġtell": 614,
      "ise": 615,
      "Ġknew": 616,
      "iness": 617,
      "Ġshort": 618,
      "ich": 619,
      "Ġbull": 620,
      "Ġpu": 621,
      "ies": 622,
      "Ġafter": 623,
      "Ġwill": 624,
      "Ġdoll": 625,
      "Ġselling": 626,
      "Ġhow": 627,
      "ook": 628,
      "Ġpoint": 629,
      "Ġnever": 630,
      "Ġbusiness": 631,
      "Ġspec": 632,
      "ert": 633,
      "ast": 634,
      "Ġgoing": 635,
      "ody": 636,
      "ac": 637,
      "ound": 638,
      "body": 639,
      "reat": 640,
      "ings": 641,
      "Ġus": 642,
      "nt": 643,
      "ity": 644,
      "Ġcl": 645,
      "ĠRem": 646,
      "ven": 647,
      "Ġtoo": 648,
      "Ġbefore": 649,
      "Ġyour": 650,
      "iend": 651,
      "Ġdollars": 652,
      "arn": 653,
      "Ġlong": 654,
      "Ġfriend": 655,
      "ud": 656,
      "inisc": 657,
      "Ġwhich": 658,
      "ĠOperator": 659,
      "ĠReminisc": 660,
      "ĠReminiscence": 661,
      "Ġow": 662,
      "Ġdown": 663,
      "Ġsold": 664,
      "Ġbrok": 665,
      "ment": 666,
      "Ġacc": 667,
      "Ġoffice": 668,
      "ap": 669,
      "ĠThere": 670,
      "ways": 671,
      "so": 672,
      "Ġpre": 673,
      "Ġke": 674,
      "Ġover": 675,
      "Ġli": 676,
      "Ġalways": 677,
      "Ġtip": 678,
      "Ġwant": 679,
      "Ġsay": 680,
      "imp": 681,
      "ason": 682,
      "Ġbear": 683,
      "ĠL": 684,
      "Ġmill": 685,
      "Ġback": 686,
      "ĠAnd": 687,
      "rong": 688,
      "Ġwe": 689,
      "Ġold": 690,
      "ove": 691,
      "um": 692,
      "Ġtrading": 693,
      "Ġagain": 694,
      "Ġpubl": 695,
      "'d": 696,
      "ied": 697,
      "Ġdec": 698,
      "Ġspecul": 699,
      "ff": 700,
      "orn": 701,
      "Ġgood": 702,
      "Ġreason": 703,
      "Ġpublic": 704,
      "ire": 705,
      "00": 706,
      "us": 707,
      "ĠJ": 708,
      "itt": 709,
      "ide": 710,
      "Ġfirst": 711,
      "Ġmust": 712,
      "ices": 713,
      "Ġbuying": 714,
      "Ġta": 715,
      "Ġtwo": 716,
      "ĠF": 717,
      "Ġinsid": 718,
      "Ġfa": 719,
      "ank": 720,
      "Ġnew": 721,
      "Ġadv": 722,
      "Ġown": 723,
      "reet": 724,
      "ious": 725,
      "Ġthen": 726,
      "Ġgr": 727,
      "Ġye": 728,
      "ial": 729,
      "hen": 730,
      "Ġwell": 731,
      "Ġput": 732,
      "Ġwasn": 733,
      "Ġhas": 734,
      "Ġbet": 735,
      "Ġgreat": 736,
      "Ġevery": 737,
      "Ġord": 738,
      "ĠNew": 739,
      "ry": 740,
      "ĠStreet": 741,
      "Ġtape": 742,
      "Ġline": 743,
      "ĠG": 744,
      "Ġtake": 745,
      "ations": 746,
      "age": 747,
      "ond": 748,
      "ĠD": 749,
      "ĠIn": 750,
      "Ġcomm": 751,
      "ber": 752,
      "Ġcame": 753,
      "oll": 754,
      "ton": 755,
      "Ġpart": 756,
      "Ġrem": 757,
      "Ġlike": 758,
      "Ġasked": 759,
      "Ġplay": 760,
      "een": 761,
      "ure": 762,
      "hed": 763,
      "ount": 764,
      "Ġcr": 765,
      "ork": 766,
      "Ġsame": 767,
      "Ġper": 768,
      "Ġdon": 769,
      "Ġnow": 770,
      "eel": 771,
      "hange": 772,
      "Ġinto": 773,
      "Ġbegan": 774,
      "ree": 775,
      "Ġcomp": 776,
      "ĠYork": 777,
      "ĠIf": 778,
      "Ġbeing": 779,
      "ĠWhen": 780,
      "Ġho": 781,
      "ĠTh": 782,
      "Ġmyself": 783,
      "ertain": 784,
      "other": 785,
      "Ġtrade": 786,
      "ipul": 787,
      "Ġbo": 788,
      "ite": 789,
      "ated": 790,
      "ered": 791,
      "ustom": 792,
      "!\"": 793,
      "Ġmight": 794,
      "Ġcall": 795,
      "Ġenough": 796,
      "Ġar": 797,
      "Ġshould": 798,
      "Ġmanipul": 799,
      "Ġjust": 800,
      "ave": 801,
      "ition": 802,
      "ep": 803,
      "ful": 804,
      "th": 805,
      "Ġpe": 806,
      "Ġlet": 807,
      "enty": 808,
      "Ġres": 809,
      "Ġdoes": 810,
      "ĠYou": 811,
      "thing": 812,
      "Ġbr": 813,
      "Ġcertain": 814,
      "Ġcustom": 815,
      "aking": 816,
      "Ġtal": 817,
      "Ġsomet": 818,
      "ull": 819,
      "Ġmat": 820,
      "Ġfact": 821,
      "Ġread": 822,
      "pect": 823,
      "Ġneed": 824,
      "ect": 825,
      "ue": 826,
      "cket": 827,
      "Ġthought": 828,
      "are": 829,
      "Ġfe": 830,
      "ool": 831,
      "ĠEx": 832,
      "Ġten": 833,
      "Ġwrong": 834,
      "Ġpay": 835,
      "Ġinst": 836,
      "Ġhapp": 837,
      "Ġpoints": 838,
      "ait": 839,
      "ting": 840,
      "Ġeven": 841,
      "ual": 842,
      "Ġbucket": 843,
      "Ġshop": 844,
      "ople": 845,
      "ĠOf": 846,
      "Ġcas": 847,
      "ĠOn": 848,
      "Ġcond": 849,
      "ittle": 850,
      "Ġbank": 851,
      "Ġgame": 852,
      "ents": 853,
      "ular": 854,
      "ener": 855,
      "ory": 856,
      "Ġthing": 857,
      "peri": 858,
      "change": 859,
      "ĠAs": 860,
      "Ġdeal": 861,
      "urn": 862,
      "pen": 863,
      "Ġbought": 864,
      "anc": 865,
      "ĠWall": 866,
      "Ġ1": 867,
      "Ġlittle": 868,
      "Ġprices": 869,
      "Ġsure": 870,
      "lo": 871,
      "Ġmost": 872,
      "Ġlook": 873,
      "Ġcouldn": 874,
      "ĠMy": 875,
      "Ġsomething": 876,
      "Ġhappen": 877,
      "Ġimp": 878,
      "Ġfoll": 879,
      "Ġpeople": 880,
      "ĠExchange": 881,
      "itions": 882,
      "Ġfive": 883,
      "ead": 884,
      "hy": 885,
      "ped": 886,
      "Ġwait": 887,
      "Ġbel": 888,
      "Ġgener": 889,
      "Ġwhere": 890,
      "Ġcome": 891,
      "less": 892,
      "Ġcot": 893,
      "ans": 894,
      "Ġgive": 895,
      "ever": 896,
      "Ġsp": 897,
      "ĠAt": 898,
      "Ġsaw": 899,
      "Ġtraders": 900,
      "Ġyears": 901,
      "Ġfollow": 902,
      "ach": 903,
      "king": 904,
      "ved": 905,
      "Ġrep": 906,
      "iff": 907,
      "Ġexperi": 908,
      "xt": 909,
      "Ġbl": 910,
      "ord": 911,
      "any": 912,
      "Ġtwenty": 913,
      "Ġconditions": 914,
      "Ġund": 915,
      "Ġprom": 916,
      "ooked": 917,
      "Ġsupp": 918,
      "Ġtimes": 919,
      "ĠMr": 920,
      "iving": 921,
      "Ġnews": 922,
      "ile": 923,
      "ĠK": 924,
      "iss": 925,
      "ĠWell": 926,
      "Ġwhy": 927,
      "Ġcotton": 928,
      "Ġthree": 929,
      "Ġwithout": 930,
      "Ġbrokers": 931,
      "ily": 932,
      "Ġob": 933,
      "Ġbre": 934,
      "Ġcha": 935,
      "Ġloss": 936,
      "Ġmillion": 937,
      "ab": 938,
      "ail": 939,
      "Ġmind": 940,
      "Ġfif": 941,
      "Ġused": 942,
      "Ġremem": 943,
      "man": 944,
      "ying": 945,
      "Ġpa": 946,
      "Ġdis": 947,
      "Ġthose": 948,
      "ĠSo": 949,
      "Ġsuch": 950,
      "Ġmatter": 951,
      "pl": 952,
      "Ġkind": 953,
      "Ġnext": 954,
      "Ġanything": 955,
      "Ġagainst": 956,
      "Ġdecl": 957,
      "ving": 958,
      "ĠU": 959,
      "Ġind": 960,
      "Ġstart": 961,
      "ome": 962,
      "Ġkept": 963,
      "Ġgeneral": 964,
      "ix": 965,
      "ating": 966,
      "Ġlooked": 967,
      "ident": 968,
      "Ġheard": 969,
      "Ġeas": 970,
      "Ġsucc": 971,
      "Ġtook": 972,
      "Ġkeep": 973,
      "Ġorder": 974,
      "Ġmove": 975,
      "Ġfig": 976,
      "Ġdiff": 977,
      "orm": 978,
      "Ġanother": 979,
      "Ġdoing": 980,
      "Ġbegin": 981,
      "Ġbroker": 982,
      "Ġsuccess": 983,
      "ib": 984,
      "Ġtick": 985,
      "Ġsy": 986,
      "Ġfin": 987,
      "Ġcont": 988,
      "Ġalso": 989,
      "Ġmillions": 990,
      "ace": 991,
      "ually": 992,
      "Ġsm": 993,
      "Ġmay": 994,
      "Ġcle": 995,
      "Ġfew": 996,
      "Ġinc": 997,
      "Ġthr": 998,
      "Ġconc": 999,
      "Ġent": 1000,
      "ors": 1001,
      "Ġhand": 1002,
      "Ġlearn": 1003,
      "Ġfirm": 1004,
      "Ġinsiders": 1005,
      "Ġremember": 1006,
      "igh": 1007,
      "Ġcorn": 1008,
      "Ġstud": 1009,
      "Ġhel": 1010,
      "ĠWhat": 1011,
      "ign": 1012,
      "Ġte": 1013,
      "Ġturn": 1014,
      "Ġits": 1015,
      "Ġmany": 1016,
      "osition": 1017,
      "Ġtrader": 1018,
      "Ġexperience": 1019,
      "'ll": 1020,
      "ger": 1021,
      "Ġchan": 1022,
      "ater": 1023,
      "Ġlose": 1024,
      "Ġstop": 1025,
      "ical": 1026,
      "Ġnothing": 1027,
      "Ġcustomers": 1028,
      "ced": 1029,
      "Ġopen": 1030,
      "ities": 1031,
      "Ġpres": 1032,
      "Ġpool": 1033,
      "Ġlost": 1034,
      "Ġhigh": 1035,
      "Ġreal": 1036,
      "erest": 1037,
      "Ġbetter": 1038,
      "ward": 1039,
      "Ġaway": 1040,
      "Ġfell": 1041,
      "ower": 1042,
      "akes": 1043,
      "Ġpartic": 1044,
      "Ġbreak": 1045,
      "Ġsw": 1046,
      "erv": 1047,
      "Ġche": 1048,
      "ative": 1049,
      "Ġgave": 1050,
      "Ġstr": 1051,
      "Ġreally": 1052,
      "cept": 1053,
      "Ġunt": 1054,
      "Ġinterest": 1055,
      "Ġparticular": 1056,
      "ged": 1057,
      "Ġoper": 1058,
      "Ġmaking": 1059,
      "Ġposs": 1060,
      "Ġsimp": 1061,
      "ĠThen": 1062,
      "Ġdays": 1063,
      "Ġadvance": 1064,
      "ness": 1065,
      "ob": 1066,
      "ught": 1067,
      "Ġdone": 1068,
      "ather": 1069,
      "Ġstill": 1070,
      "illi": 1071,
      "Ġcompany": 1072,
      "Ġthrough": 1073,
      "Ġought": 1074,
      "ither": 1075,
      "Ġfeel": 1076,
      "Ġever": 1077,
      "Ġwork": 1078,
      "sol": 1079,
      "ible": 1080,
      "Ġfind": 1081,
      "Ġfound": 1082,
      "Ġlo": 1083,
      "vel": 1084,
      "Ġthir": 1085,
      "Ġrec": 1086,
      "Ġhold": 1087,
      "Ġuntil": 1088,
      "lt": 1089,
      "tty": 1090,
      "Ġbot": 1091,
      "Ġdes": 1092,
      "Ġinv": 1093,
      "Ġend": 1094,
      "Ġmean": 1095,
      "Ġquot": 1096,
      "Ġquite": 1097,
      "Ġbelie": 1098,
      "ol": 1099,
      "Ġac": 1100,
      "Ġmen": 1101,
      "Ġonce": 1102,
      "ston": 1103,
      "Ġmere": 1104,
      "Ġrun": 1105,
      "ĠSteel": 1106,
      "Ġconsid": 1107,
      "Ġsec": 1108,
      "Ġbearish": 1109,
      "ĠThis": 1110,
      "Ġmanipulation": 1111,
      "ĠOne": 1112,
      "Ġfellow": 1113,
      "Ġwin": 1114,
      "Ġmom": 1115,
      "Ġmeant": 1116,
      "ession": 1117,
      "Ġ19": 1118,
      "Ġhelp": 1119,
      "'ve": 1120,
      "aw": 1121,
      "gin": 1122,
      "li": 1123,
      "Ġlist": 1124,
      "Ġgone": 1125,
      "ale": 1126,
      "Ġmargin": 1127,
      "ams": 1128,
      "ĠAfter": 1129,
      "osed": 1130,
      "Ġhimself": 1131,
      "Ġfriends": 1132,
      "000": 1133,
      "cess": 1134,
      "not": 1135,
      "uct": 1136,
      "Ġthese": 1137,
      "Ġposition": 1138,
      "ass": 1139,
      "ary": 1140,
      "Ġlot": 1141,
      "Ġrise": 1142,
      "ĠWilli": 1143,
      "Ġshow": 1144,
      "Ġconf": 1145,
      "Ġplain": 1146,
      "ĠNo": 1147,
      "eene": 1148,
      "Ġshops": 1149,
      "Ġunder": 1150,
      "ĠKeene": 1151,
      "Ġsimply": 1152,
      "What": 1153,
      "ks": 1154,
      "here": 1155,
      "ouble": 1156,
      "Ġfour": 1157,
      "Ġdr": 1158,
      "Ġinf": 1159,
      "ates": 1160,
      "Ġthings": 1161,
      "Ġel": 1162,
      "Ġreg": 1163,
      "ress": 1164,
      "Ġpretty": 1165,
      "Ġspeculator": 1166,
      "Ġcash": 1167,
      "Ġmoment": 1168,
      "bt": 1169,
      "Ġsl": 1170,
      "Ġmist": 1171,
      "Ġcent": 1172,
      "Ġlast": 1173,
      "ict": 1174,
      "ently": 1175,
      "Ġwheat": 1176,
      "Ġleast": 1177,
      "Ġquick": 1178,
      "Ġseem": 1179,
      "Ġval": 1180,
      "Ġwanted": 1181,
      "Ġmerely": 1182,
      "cy": 1183,
      "iz": 1184,
      "Ġmon": 1185,
      "ern": 1186,
      "arly": 1187,
      "Ġsoon": 1188,
      "Ġcons": 1189,
      "Ġactive": 1190,
      "Ġbullish": 1191,
      "ivingston": 1192,
      "ci": 1193,
      "Ġcare": 1194,
      "Ġfar": 1195,
      "Ġgu": 1196,
      "ided": 1197,
      "Ġstrong": 1198,
      "ĠTr": 1199,
      "Ġexpect": 1200,
      "ĠLivingston": 1201,
      "irect": 1202,
      "Ġorders": 1203,
      "Ġfelt": 1204,
      "Ġfigu": 1205,
      "that": 1206,
      "uck": 1207,
      "hes": 1208,
      "Ġaver": 1209,
      "Ġwise": 1210,
      "ouse": 1211,
      "Ġdirect": 1212,
      "ising": 1213,
      "Ġless": 1214,
      "ute": 1215,
      "Ġatt": 1216,
      "orts": 1217,
      "Ġprofession": 1218,
      "Ġinside": 1219,
      "Ġcommiss": 1220,
      "Ġmovement": 1221,
      "Ġdiffere": 1222,
      "Ġentire": 1223,
      "You": 1224,
      "Ġbal": 1225,
      "Ġbest": 1226,
      "Ġpur": 1227,
      "Ġnat": 1228,
      "Ġlos": 1229,
      "Ġhead": 1230,
      "Ġass": 1231,
      "ult": 1232,
      "Ġexact": 1233,
      "Ġcannot": 1234,
      "Ġaccount": 1235,
      "Ġfifty": 1236,
      "Ġelse": 1237,
      "Ġmonth": 1238,
      "Ġprofessional": 1239,
      "led": 1240,
      "nce": 1241,
      "ps": 1242,
      "ract": 1243,
      "ves": 1244,
      "Ġ&": 1245,
      "Ġoperator": 1246,
      "Ġsix": 1247,
      "Ġmorn": 1248,
      "Ġcar": 1249,
      "ished": 1250,
      "Ġlater": 1251,
      "Ġhig": 1252,
      "Ġhere": 1253,
      "Ġmanag": 1254,
      "Ġwouldn": 1255,
      "Ġable": 1256,
      "Ġgetting": 1257,
      "Ġbroke": 1258,
      "Ġspeculation": 1259,
      "Ġboth": 1260,
      "Ġmorning": 1261,
      "ning": 1262,
      "ple": 1263,
      "inc": 1264,
      "Ġsc": 1265,
      "ited": 1266,
      "Ġpers": 1267,
      "ster": 1268,
      "Ġthough": 1269,
      "Ġpract": 1270,
      "Ġtried": 1271,
      "Ġwhile": 1272,
      "Ġwhether": 1273,
      "Ġexpl": 1274,
      "istance": 1275,
      "Ġtips": 1276,
      "Ġhappened": 1277,
      "ĠWilliams": 1278,
      "ft": 1279,
      "Ġfl": 1280,
      "Ġdet": 1281,
      "ised": 1282,
      "ically": 1283,
      "Ġmem": 1284,
      "ĠSu": 1285,
      "Ġexc": 1286,
      "arding": 1287,
      "Ġaround": 1288,
      "Ġneeded": 1289,
      "Ġpaper": 1290,
      "ince": 1291,
      "Ġwee": 1292,
      "Ġmet": 1293,
      "Ġhaving": 1294,
      "Ġrather": 1295,
      "Ġworld": 1296,
      "Ġprofits": 1297,
      "Ġinstead": 1298,
      "ably": 1299,
      "Ġconcern": 1300,
      "el": 1301,
      "gr": 1302,
      "ng": 1303,
      "ses": 1304,
      "Ġwish": 1305,
      "Ġcap": 1306,
      "Ġstory": 1307,
      "ĠWhy": 1308,
      "Ġtherefore": 1309,
      "Ġthinking": 1310,
      "Ġdecided": 1311,
      "ffee": 1312,
      "Ġfair": 1313,
      "Ġstarted": 1314,
      "Ġconsider": 1315,
      "Ġhigher": 1316,
      "ĠWilliamson": 1317,
      "mer": 1318,
      "og": 1319,
      "ten": 1320,
      "Ġim": 1321,
      "Ġmin": 1322,
      "ased": 1323,
      "Ġro": 1324,
      "ĠWe": 1325,
      "ĠBe": 1326,
      "ĠAn": 1327,
      "Ġplace": 1328,
      "ully": 1329,
      "Ġaverage": 1330,
      "av": 1331,
      "aid": 1332,
      "day": 1333,
      "the": 1334,
      "Ġcount": 1335,
      "atch": 1336,
      "Ġhouse": 1337,
      "ading": 1338,
      "Ġreact": 1339,
      "leas": 1340,
      "Ġask": 1341,
      "Ġtrying": 1342,
      "Ġtrouble": 1343,
      "ife": 1344,
      "ific": 1345,
      "Ġanybody": 1346,
      "ĠUn": 1347,
      "Ġthirty": 1348,
      "Yes": 1349,
      "dd": 1350,
      "sw": 1351,
      "Ġshe": 1352,
      "Ġside": 1353,
      "Ġflo": 1354,
      "Ġins": 1355,
      "Ġbeat": 1356,
      "Ġlim": 1357,
      "Ġev": 1358,
      "Ġeither": 1359,
      "Ġdem": 1360,
      "Ġconv": 1361,
      "Ġhope": 1362,
      "Ġnewsp": 1363,
      "Ġsmall": 1364,
      "Ġoperations": 1365,
      "ces": 1366,
      "ital": 1367,
      "Ġstake": 1368,
      "ĠTo": 1369,
      "Ġansw": 1370,
      "Ġrally": 1371,
      "Ġcover": 1372,
      "Ġcoffee": 1373,
      "ived": 1374,
      "ĠEvery": 1375,
      "Ġword": 1376,
      "Ġcler": 1377,
      "apers": 1378,
      "Ġtalk": 1379,
      "Ġdecline": 1380,
      "Ġlearned": 1381,
      "Ġexactly": 1382,
      "ared": 1383,
      "five": 1384,
      "me": 1385,
      "Ġsign": 1386,
      "Ġhar": 1387,
      "icate": 1388,
      "Ġheld": 1389,
      "Ġrest": 1390,
      "Ġsaf": 1391,
      "ively": 1392,
      "Ġknown": 1393,
      "Ġcost": 1394,
      "Ġleft": 1395,
      "acon": 1396,
      "Ġmanipulator": 1397,
      "Ġcustomer": 1398,
      "Ġfinanc": 1399,
      "pr": 1400,
      "Ġopp": 1401,
      "Ġsen": 1402,
      "Ġdiv": 1403,
      "Ġeight": 1404,
      "Ġisn": 1405,
      "ĠHarding": 1406,
      "Ġdef": 1407,
      "ortun": 1408,
      "ately": 1409,
      "Ġnobody": 1410,
      "ude": 1411,
      "Ġcalled": 1412,
      "Ġeasy": 1413,
      "Ġtele": 1414,
      "solid": 1415,
      "Ġmonths": 1416,
      "Ġmanager": 1417,
      "cr": 1418,
      "cha": 1419,
      "ndicate": 1420,
      "Ġch": 1421,
      "Ġname": 1422,
      "ets": 1423,
      "Ġearn": 1424,
      "ĠAll": 1425,
      "Ġsuck": 1426,
      "Ġgoes": 1427,
      "Ġvar": 1428,
      "idend": 1429,
      "Ġboy": 1430,
      "ances": 1431,
      "Ġpaid": 1432,
      "Ġsyndicate": 1433,
      "ex": 1434,
      "fully": 1435,
      "gan": 1436,
      "teen": 1437,
      "vious": 1438,
      "ween": 1439,
      "erm": 1440,
      "Ġcred": 1441,
      "Ġpleas": 1442,
      "Ġdisc": 1443,
      "Ġbeha": 1444,
      "Ġhear": 1445,
      "Ġuse": 1446,
      "Ġran": 1447,
      "Ġproper": 1448,
      "ĠCom": 1449,
      "Ġusual": 1450,
      "Ġeverybody": 1451,
      "ĠDan": 1452,
      "Ġresistance": 1453,
      "Ġtalking": 1454,
      "Ġfacts": 1455,
      "Ġticker": 1456,
      "Ġincre": 1457,
      "Ġinvest": 1458,
      "Ġsecond": 1459,
      "Ġcommission": 1460,
      "Ġdemand": 1461,
      "Ġdividend": 1462,
      "50": 1463,
      "bit": 1464,
      "Ġwond": 1465,
      "Ġour": 1466,
      "Ġsat": 1467,
      "Ġsent": 1468,
      "Ġbad": 1469,
      "Ġcou": 1470,
      "Ġhous": 1471,
      "Ġstat": 1472,
      "omas": 1473,
      "Ġher": 1474,
      "ellig": 1475,
      "Ġmarkets": 1476,
      "Ġnecess": 1477,
      "Ġext": 1478,
      "Ġprob": 1479,
      "Ġadd": 1480,
      "Ġweak": 1481,
      "Ġspeculative": 1482,
      "ĠThomas": 1483,
      "Ġboard": 1484,
      "Ġreading": 1485,
      "Ġstopped": 1486,
      "Ġinform": 1487,
      "Ġnatur": 1488,
      "Ġcapital": 1489,
      "Ġhouses": 1490,
      "ject": 1491,
      "âģ": 1492,
      "Ġaff": 1493,
      "Ġwar": 1494,
      "Ġhalf": 1495,
      "Ġgiv": 1496,
      "ceed": 1497,
      "Ġupon": 1498,
      "Ġtraded": 1499,
      "uring": 1500,
      "Ġoutsid": 1501,
      "Ġpol": 1502,
      "Ġactually": 1503,
      "Ġshorts": 1504,
      "Ġreasons": 1505,
      "Ġfail": 1506,
      "Ġpromot": 1507,
      "Ġdisp": 1508,
      "Ġsuccessful": 1509,
      "Ġstudy": 1510,
      "velop": 1511,
      "Ġbelieve": 1512,
      "Ġlisten": 1513,
      "Ġcarry": 1514,
      "Ġfloor": 1515,
      "Ġclerk": 1516,
      "âģĦ": 1517,
      "gar": 1518,
      "get": 1519,
      "vi": 1520,
      "Ġpower": 1521,
      "ishing": 1522,
      "Ġgl": 1523,
      "Ġgam": 1524,
      "idence": 1525,
      "stand": 1526,
      "alm": 1527,
      "veral": 1528,
      "Ġret": 1529,
      "Ġpros": 1530,
      "ained": 1531,
      "ĠNow": 1532,
      "Ġsomebody": 1533,
      "Ġseveral": 1534,
      "Ġamount": 1535,
      "ĠFor": 1536,
      "Ġyear": 1537,
      "Ġcommod": 1538,
      "Ġcertainly": 1539,
      "Ġcase": 1540,
      "Ġobs": 1541,
      "Ġpossible": 1542,
      "Ġquotation": 1543,
      "Ġvalue": 1544,
      "ĠSugar": 1545,
      "Ġcountry": 1546,
      "Ġlimit": 1547,
      "Ġsafe": 1548,
      "Ġtelegr": 1549,
      "Ġvarious": 1550,
      "lus": 1551,
      "nch": 1552,
      "Ġaut": 1553,
      "Ġwi": 1554,
      "Ġwr": 1555,
      "Ġsince": 1556,
      "Ġbook": 1557,
      "Ġfull": 1558,
      "Ġpat": 1559,
      "Ġhabit": 1560,
      "ici": 1561,
      "sel": 1562,
      "Ġprop": 1563,
      "Ġprinc": 1564,
      "Ġhadn": 1565,
      "eller": 1566,
      "elled": 1567,
      "ĠHis": 1568,
      "ĠStove": 1569,
      "Ġdevelop": 1570,
      "Ġexcept": 1571,
      "aken": 1572,
      "Ġplun": 1573,
      "Ġthousands": 1574,
      "Ġintellig": 1575,
      "ĠCon": 1576,
      "Ġseen": 1577,
      "Ġothers": 1578,
      "ĠJim": 1579,
      "Ġdoesn": 1580,
      "Ġfollowing": 1581,
      "Ġholdings": 1582,
      "Ġaccept": 1583,
      "Ġfigured": 1584,
      "Ġperson": 1585,
      "Ġroom": 1586,
      "Ġfinancial": 1587,
      "solidated": 1588,
      "Ġwonder": 1589,
      "Ġprincip": 1590,
      "10": 1591,
      "az": 1592,
      "bers": 1593,
      "ls": 1594,
      "ner": 1595,
      "Ġ2": 1596,
      "Ġmine": 1597,
      "haps": 1598,
      "orr": 1599,
      "organ": 1600,
      "Ġlife": 1601,
      "stem": 1602,
      "pend": 1603,
      "Ġsus": 1604,
      "Ġsuff": 1605,
      "ains": 1606,
      "Ġwhatever": 1607,
      "ement": 1608,
      "ility": 1609,
      "ĠMorgan": 1610,
      "Ġclose": 1611,
      "Ġclosed": 1612,
      "Ġaccord": 1613,
      "ĠJo": 1614,
      "Ġfifteen": 1615,
      "Ġsystem": 1616,
      "Ġchance": 1617,
      "Ġcheck": 1618,
      "Ġparticularly": 1619,
      "Ġ190": 1620,
      "Ġregular": 1621,
      "Ġdifference": 1622,
      "Ġbales": 1623,
      "Ġlosing": 1624,
      "Ġanswered": 1625,
      "Ġopportun": 1626,
      "Ġcredit": 1627,
      "No": 1628,
      "gest": 1629,
      "ired": 1630,
      "les": 1631,
      "most": 1632,
      "oint": 1633,
      "te": 1634,
      "Ġtaking": 1635,
      "Ġtaken": 1636,
      "ined": 1637,
      "ines": 1638,
      "Ġsit": 1639,
      "Ġmakes": 1640,
      "Ġtop": 1641,
      "itude": 1642,
      "Ġoften": 1643,
      "Ġlar": 1644,
      "ĠTT": 1645,
      "Ġheav": 1646,
      "imate": 1647,
      "Ġform": 1648,
      "Ġprint": 1649,
      "Ġdeacon": 1650,
      "Ġexpen": 1651,
      "Ġthemsel": 1652,
      "Ġjob": 1653,
      "Ġvi": 1654,
      "Ġaccum": 1655,
      "Ġfav": 1656,
      "Ġboom": 1657,
      "Ġmistakes": 1658,
      "Ġpurcha": 1659,
      "Ġnewspapers": 1660,
      "Ġincreas": 1661,
      "Ġinformation": 1662,
      "ĠConsolidated": 1663,
      "Ġthemselves": 1664,
      "Ġaccumul": 1665,
      "ec": 1666,
      "mar": 1667,
      "where": 1668,
      "Ġtem": 1669,
      "Ġwal": 1670,
      "rent": 1671,
      "Ġfam": 1672,
      "Ġfur": 1673,
      "Ġhour": 1674,
      "ete": 1675,
      "ides": 1676,
      "ics": 1677,
      "Ġeff": 1678,
      "Ġyet": 1679,
      "Ġred": 1680,
      "Ġrece": 1681,
      "Ġtrans": 1682,
      "ĠBr": 1683,
      "hern": 1684,
      "Ġdev": 1685,
      "Ġcoming": 1686,
      "Ġalone": 1687,
      "Ġalong": 1688,
      "Ġshare": 1689,
      "Ġplan": 1690,
      "Ġjud": 1691,
      "Ġactual": 1692,
      "Ġspecial": 1693,
      "Ġlooking": 1694,
      "Ġbelow": 1695,
      "Ġsuppose": 1696,
      "Ġpresident": 1697,
      "Ġexpected": 1698,
      "Ġreaction": 1699,
      "Ġgiven": 1700,
      "20": 1701,
      "30": 1702,
      "ched": 1703,
      "ef": 1704,
      "fort": 1705,
      "ging": 1706,
      "hn": 1707,
      "no": 1708,
      "ph": 1709,
      "ts": 1710,
      "Ġut": 1711,
      "Ġapp": 1712,
      "Ġwatch": 1713,
      "Ġop": 1714,
      "Ġsort": 1715,
      "Ġsqu": 1716,
      "Ġbound": 1717,
      "Ġce": 1718,
      "ency": 1719,
      "Ġnice": 1720,
      "owd": 1721,
      "Ġeach": 1722,
      "Ġmeans": 1723,
      "Ġallow": 1724,
      "Ġdebt": 1725,
      "Ġalmost": 1726,
      "road": 1727,
      "Ġknows": 1728,
      "ĠPer": 1729,
      "ĠPac": 1730,
      "Ġcli": 1731,
      "ments": 1732,
      "Ġgrou": 1733,
      "Ġbetween": 1734,
      "Ġcrowd": 1735,
      "Ġfear": 1736,
      "Ġprompt": 1737,
      "Ġobject": 1738,
      "Ġchap": 1739,
      "Ġseemed": 1740,
      "ĠPacific": 1741,
      "That": 1742,
      "ev": 1743,
      "ier": 1744,
      "ted": 1745,
      "ule": 1746,
      "Ġap": 1747,
      "Ġsk": 1748,
      "Ġset": 1749,
      "Ġmis": 1750,
      "Ġmod": 1751,
      "Ġchange": 1752,
      "Ġfore": 1753,
      "Ġduring": 1754,
      "arily": 1755,
      "Ġitself": 1756,
      "ention": 1757,
      "vers": 1758,
      "amm": 1759,
      "ĠAl": 1760,
      "Ġkill": 1761,
      "Ġhuman": 1762,
      "isted": 1763,
      "Ġquest": 1764,
      "Ġsaying": 1765,
      "ĠFr": 1766,
      "Ġadvice": 1767,
      "Ġcommon": 1768,
      "Ġfollowed": 1769,
      "Ġreport": 1770,
      "Ġreports": 1771,
      "Ġsupport": 1772,
      "Ġcontin": 1773,
      "Ġturned": 1774,
      "Ġ191": 1775,
      "Ġweeks": 1776,
      "Ġhard": 1777,
      "Ġcommodities": 1778,
      "ĠJohn": 1779,
      "Ġopportunity": 1780,
      "Ġopin": 1781,
      "abl": 1782,
      "fer": 1783,
      "ling": 1784,
      "over": 1785,
      "tic": 1786,
      "und": 1787,
      "Ġwarn": 1788,
      "Ġsound": 1789,
      "Ġsale": 1790,
      "Ġcor": 1791,
      "Ġdist": 1792,
      "ens": 1793,
      "isf": 1794,
      "Ġluck": 1795,
      "Ġhur": 1796,
      "Ġstood": 1797,
      "iced": 1798,
      "vered": 1799,
      "imes": 1800,
      "Ġrate": 1801,
      "Ġraid": 1802,
      "Ġtry": 1803,
      "ĠBy": 1804,
      "ĠBarn": 1805,
      "igin": 1806,
      "orth": 1807,
      "Ġabs": 1808,
      "Ġunless": 1809,
      "Ġleg": 1810,
      "ivid": 1811,
      "Ġhundreds": 1812,
      "Ġworse": 1813,
      "Ġbushe": 1814,
      "Ġamong": 1815,
      "Ġperf": 1816,
      "Ġtalked": 1817,
      "Ġwaiting": 1818,
      "Ġlosses": 1819,
      "ibly": 1820,
      "Ġswing": 1821,
      "Ġcheap": 1822,
      "uctu": 1823,
      "Ġmistake": 1824,
      "Ġfluctu": 1825,
      "Ġdeterm": 1826,
      "ĠUnion": 1827,
      "Ġcouple": 1828,
      "Ġnaturally": 1829,
      "Ġgambl": 1830,
      "ĠBarnes": 1831,
      "40": 1832,
      "Well": 1833,
      "Why": 1834,
      "gment": 1835,
      "hod": 1836,
      "old": 1837,
      "por": 1838,
      "ring": 1839,
      "ried": 1840,
      "uly": 1841,
      "hem": 1842,
      "head": 1843,
      "Ġwis": 1844,
      "Ġbas": 1845,
      "ering": 1846,
      "Ġtoward": 1847,
      "Ġcur": 1848,
      "Ġfool": 1849,
      "Ġpar": 1850,
      "Ġpan": 1851,
      "Ġdou": 1852,
      "esides": 1853,
      "anger": 1854,
      "ution": 1855,
      "Ġem": 1856,
      "Ġreck": 1857,
      "Ġtrue": 1858,
      "Ġsub": 1859,
      "Ġsudd": 1860,
      "Ġprove": 1861,
      "ips": 1862,
      "Ġwhole": 1863,
      "Ġcovered": 1864,
      "Ġlead": 1865,
      "Ġlevel": 1866,
      "Ġadver": 1867,
      "ĠCamm": 1868,
      "Ġtelling": 1869,
      "Ġowed": 1870,
      "Ġsays": 1871,
      "Ġcross": 1872,
      "Ġarg": 1873,
      "Ġinstance": 1874,
      "Ġfinally": 1875,
      "Ġopened": 1876,
      "Ġconfidence": 1877,
      "Ġvalu": 1878,
      "Ġmembers": 1879,
      "Ġmethod": 1880,
      "Ġsense": 1881,
      "Ġsucker": 1882,
      "Ġsatisf": 1883,
      "Ġpromoters": 1884,
      "Ġlarge": 1885,
      "Ġjudgment": 1886,
      "Ġsudden": 1887,
      "ĠCammack": 1888,
      "'m": 1889,
      "aul": 1890,
      "ru": 1891,
      "sh": 1892,
      "sed": 1893,
      "vail": 1894,
      "Ġtest": 1895,
      "rew": 1896,
      "Ġborr": 1897,
      "itan": 1898,
      "ons": 1899,
      "Ġpass": 1900,
      "Ġearly": 1901,
      "Ġrule": 1902,
      "Ġorigin": 1903,
      "ĠWo": 1904,
      "ified": 1905,
      "Ġsur": 1906,
      "Ġproble": 1907,
      "Ġabove": 1908,
      "Ġcomes": 1909,
      "rod": 1910,
      "Ġunex": 1911,
      "Ġworking": 1912,
      "erton": 1913,
      "acond": 1914,
      "orne": 1915,
      "ĠFull": 1916,
      "Ġeverything": 1917,
      "Ġcalls": 1918,
      "Ġresult": 1919,
      "Ġbring": 1920,
      "Ġbrought": 1921,
      "log": 1922,
      "Ġreput": 1923,
      "Ġsupply": 1924,
      "Ġchar": 1925,
      "Ġindivid": 1926,
      "Ġfigure": 1927,
      "Ġdiffic": 1928,
      "Ġhands": 1929,
      "Ġcorner": 1930,
      "Ġfeeling": 1931,
      "Ġfellows": 1932,
      "Ġconserv": 1933,
      "Ġfigures": 1934,
      "Ġexplan": 1935,
      "Ġglad": 1936,
      "market": 1937,
      "Ġproblem": 1938,
      "aconda": 1939,
      "ĠFullerton": 1940,
      "Ġindividual": 1941,
      "He": 1942,
      "ope": 1943,
      "Ġill": 1944,
      "Ġwon": 1945,
      "Ġworth": 1946,
      "Ġsight": 1947,
      "Ġbesides": 1948,
      "ouis": 1949,
      "Ġfishing": 1950,
      "Ġpock": 1951,
      "Ġinter": 1952,
      "Ġliving": 1953,
      "Ġlower": 1954,
      "Ġstand": 1955,
      "Ġstick": 1956,
      "owing": 1957,
      "Ġref": 1958,
      "Ġur": 1959,
      "ĠTheir": 1960,
      "ĠSome": 1961,
      "Ġris": 1962,
      "ĠBo": 1963,
      "ĠBorne": 1964,
      "Ġexp": 1965,
      "Ġproved": 1966,
      "antly": 1967,
      "lff": 1968,
      "Ġunc": 1969,
      "ĠPalm": 1970,
      "ĠPaul": 1971,
      "ĠLouis": 1972,
      "Ġgreater": 1973,
      "pected": 1974,
      "Ġhappens": 1975,
      "Ġimport": 1976,
      "ailroad": 1977,
      "Ġeasily": 1978,
      "Ġbeginning": 1979,
      "Ġthird": 1980,
      "Ġshowed": 1981,
      "Ġunderstand": 1982,
      "Ġdetail": 1983,
      "Ġweek": 1984,
      "ĠBeach": 1985,
      "ĠAnaconda": 1986,
      "Ġbehavi": 1987,
      "Ġprobably": 1988,
      "Ġaddition": 1989,
      "Ġreturn": 1990,
      "rentiss": 1991,
      "Ġfurther": 1992,
      "Ġappe": 1993,
      "Ġkilling": 1994,
      "ĠWolff": 1995,
      "ĠBorneo": 1996,
      "'re": 1997,
      "But": 1998,
      "It": 1999,
      "eed": 2000,
      "nings": 2001,
      "ping": 2002,
      "point": 2003,
      "uc": 2004,
      "inch": 2005,
      "inally": 2006,
      "Ġfall": 2007,
      "Ġdue": 2008,
      "Ġdanger": 2009,
      "aned": 2010,
      "Ġlow": 2011,
      "ĠTeller": 2012,
      "Ġrepe": 2013,
      "Ġshook": 2014,
      "eez": 2015,
      "opical": 2016,
      "Ġhist": 2017,
      "Ġoffered": 2018,
      "Ġknowing": 2019,
      "Ġwhose": 2020,
      "ief": 2021,
      "ĠNot": 2022,
      "ĠRead": 2023,
      "Ġworked": 2024,
      "Ġbiggest": 2025,
      "agn": 2026,
      "Ġusually": 2027,
      "Ġfriendly": 2028,
      "Ġtipster": 2029,
      "Ġinsider": 2030,
      "Ġplaying": 2031,
      "Ġcompl": 2032,
      "itely": 2033,
      "Ġmighty": 2034,
      "Ġready": 2035,
      "Ġbankers": 2036,
      "Ġobvious": 2037,
      "Ġcontract": 2038,
      "solute": 2039,
      "Ġspeculators": 2040,
      "Ġquickly": 2041,
      "ize": 2042,
      "ĠTrading": 2043,
      "ĠTropical": 2044,
      "Ġdifferent": 2045,
      "Ġbalance": 2046,
      "ledge": 2047,
      "Ġsixty": 2048,
      "Ġpractice": 2049,
      "Ġimag": 2050,
      "ĠEverybody": 2051,
      "Ġearnings": 2052,
      "Ġpersonal": 2053,
      "Ġaccording": 2054,
      "Ġview": 2055,
      "Ġceased": 2056,
      "Ġgroup": 2057,
      "Ġbushels": 2058,
      "Ġfluctuations": 2059,
      "ĠReading": 2060,
      "solutely": 2061,
      "aper": 2062,
      "end": 2063,
      "ges": 2064,
      "ild": 2065,
      "mper": 2066,
      "ned": 2067,
      "rat": 2068,
      "up": 2069,
      "uation": 2070,
      "Ġtre": 2071,
      "Ġtou": 2072,
      "ining": 2073,
      "Ġwished": 2074,
      "Ġtheory": 2075,
      "Ġobl": 2076,
      "Ġsir": 2077,
      "ĠImper": 2078,
      "Ġcinch": 2079,
      "enced": 2080,
      "ark": 2081,
      "ester": 2082,
      "Ġhop": 2083,
      "uth": 2084,
      "Ġstay": 2085,
      "Ġstead": 2086,
      "Ġequ": 2087,
      "ime": 2088,
      "ented": 2089,
      "Ġrequ": 2090,
      "Ġforty": 2091,
      "Ġprot": 2092,
      "ĠShe": 2093,
      "ĠSout": 2094,
      "Ġrall": 2095,
      "Ġrul": 2096,
      "Ġrich": 2097,
      "Ġrailroad": 2098,
      "Ġtrick": 2099,
      "Ġtruth": 2100,
      "ames": 2101,
      "ĠStill": 2102,
      "Ġdepend": 2103,
      "opol": 2104,
      "Ġexec": 2105,
      "Ġoffices": 2106,
      "Ġknowledge": 2107,
      "Ġplans": 2108,
      "Ġbecome": 2109,
      "ĠPrentiss": 2110,
      "Ġadm": 2111,
      "Ġspeak": 2112,
      "ĠCo": 2113,
      "Ġago": 2114,
      "Ġsend": 2115,
      "ached": 2116,
      "Ġaccur": 2117,
      "Ġprec": 2118,
      "Ġbanks": 2119,
      "Ġwaited": 2120,
      "Ġblock": 2121,
      "Ġblind": 2122,
      "Ġticket": 2123,
      "Ġpossibly": 2124,
      "Ġlog": 2125,
      "Ġrecord": 2126,
      "Ġacqu": 2127,
      "Ġmovements": 2128,
      "Ġloses": 2129,
      "Ġconcerned": 2130,
      "Ġimm": 2131,
      "Ġevents": 2132,
      "Ġinvestment": 2133,
      "Ġcarrying": 2134,
      "Ġreceived": 2135,
      "Ġtransact": 2136,
      "fortable": 2137,
      "Ġutter": 2138,
      "Ġsqueez": 2139,
      "Ġcontinu": 2140,
      "Ġabsor": 2141,
      "Ġadvert": 2142,
      "Ġvaluable": 2143,
      "Ġpocket": 2144,
      "Ġbehaviour": 2145,
      "Ġoblig": 2146,
      "ĠImperial": 2147,
      "opolitan": 2148,
      "aly": 2149,
      "cceed": 2150,
      "hu": 2151,
      "hic": 2152,
      "hil": 2153,
      "ia": 2154,
      "lock": 2155,
      "sy": 2156,
      "uce": 2157,
      "ures": 2158,
      "venty": 2159,
      "Ġest": 2160,
      "Ġaw": 2161,
      "inent": 2162,
      "ret": 2163,
      "read": 2164,
      "Ġbar": 2165,
      "Ġcents": 2166,
      "Ġfix": 2167,
      "Ġpick": 2168,
      "ash": 2169,
      "ision": 2170,
      "ane": 2171,
      "Ġnum": 2172,
      "utes": 2173,
      "Ġey": 2174,
      "Ġnoticed": 2175,
      "Ġann": 2176,
      "Ġantic": 2177,
      "Ġra": 2178,
      "Ġrum": 2179,
      "Ġrus": 2180,
      "Ġtrust": 2181,
      "Ġtrack": 2182,
      "ĠWh": 2183,
      "ĠWas": 2184,
      "ĠWith": 2185,
      "ĠBet": 2186,
      "Ġsucceed": 2187,
      "Ġdeli": 2188,
      "ational": 2189,
      "orthern": 2190,
      "ĠOld": 2191,
      "que": 2192,
      "ĠMore": 2193,
      "Ġoffer": 2194,
      "aught": 2195,
      "Ġbecame": 2196,
      "Ġseven": 2197,
      "Ġseventy": 2198,
      "Ġenc": 2199,
      "Ġprofitable": 2200,
      "ages": 2201,
      "Ġafterno": 2202,
      "Ġwilling": 2203,
      "Ġhowever": 2204,
      "Ġlonger": 2205,
      "used": 2206,
      "ĠFinally": 2207,
      "Ġyeh": 2208,
      "Ġputting": 2209,
      "Ġperhaps": 2210,
      "ĠMrs": 2211,
      "Ġcharact": 2212,
      "Ġclever": 2213,
      "Ġclearly": 2214,
      "Ġtend": 2215,
      "Ġchanged": 2216,
      "Ġinterested": 2217,
      "Ġwinnings": 2218,
      "Ġplainly": 2219,
      "ized": 2220,
      "Ġguess": 2221,
      "Ġdirectors": 2222,
      "Ġminutes": 2223,
      "Ġnecessary": 2224,
      "Ġobserv": 2225,
      "Ġsituation": 2226,
      "Ġexpens": 2227,
      "Ġfavour": 2228,
      "Ġwalked": 2229,
      "Ġperfect": 2230,
      "Ġpanic": 2231,
      "Ġdifficult": 2232,
      "Ġabsorb": 2233,
      "Ġanticip": 2234,
      "Ġafternoon": 2235,
      "Ġcharacter": 2236,
      "22": 2237,
      "app": 2238,
      "aving": 2239,
      "by": 2240,
      "cul": 2241,
      "how": 2242,
      "ian": 2243,
      "ires": 2244,
      "ken": 2245,
      "lant": 2246,
      "mopolitan": 2247,
      "ne": 2248,
      "oice": 2249,
      "olog": 2250,
      "pany": 2251,
      "rid": 2252,
      "wise": 2253,
      "Ġahead": 2254,
      "Ġwide": 2255,
      "Ġmer": 2256,
      "reed": 2257,
      "erved": 2258,
      "iting": 2259,
      "itable": 2260,
      "ont": 2261,
      "Ġfee": 2262,
      "Ġfree": 2263,
      "Ġpun": 2264,
      "ories": 2265,
      "arry": 2266,
      "anies": 2267,
      "Ġhome": 2268,
      "ote": 2269,
      "sted": 2270,
      "Ġrel": 2271,
      "Ġreached": 2272,
      "Ġforget": 2273,
      "Ġasso": 2274,
      "Ġanaly": 2275,
      "Ġroll": 2276,
      "Ġrising": 2277,
      "Ġdoz": 2278,
      "Ġsol": 2279,
      "Ġwithin": 2280,
      "ously": 2281,
      "ĠStrat": 2282,
      "Ġdep": 2283,
      "osmopolitan": 2284,
      "urope": 2285,
      "Ġprocess": 2286,
      "rove": 2287,
      "Ġshar": 2288,
      "Ġcoll": 2289,
      "ĠNorthern": 2290,
      "Ġunlo": 2291,
      "Ġlend": 2292,
      "ĠEurope": 2293,
      "ĠCosmopolitan": 2294,
      "Ġacting": 2295,
      "Ġadvant": 2296,
      "ĠDo": 2297,
      "Ġplayed": 2298,
      "Ġcompanies": 2299,
      "Ġarr": 2300,
      "Ġspot": 2301,
      "ĠAtlant": 2302,
      "Ġclear": 2303,
      "Ġstudying": 2304,
      "Ġquotations": 2305,
      "Ġconfident": 2306,
      "Ġdrop": 2307,
      "Ġseems": 2308,
      "Ġattitude": 2309,
      "Ġcommissions": 2310,
      "Ġnature": 2311,
      "theless": 2312,
      "Ġinsist": 2313,
      "Ġdefin": 2314,
      "ĠCompany": 2315,
      "Ġprosper": 2316,
      "Ġtelegrap": 2317,
      "lusively": 2318,
      "Ġautom": 2319,
      "Ġintelligent": 2320,
      "Ġpromptly": 2321,
      "Ġdetermine": 2322,
      "Ġemp": 2323,
      "Ġreckless": 2324,
      "Ġargue": 2325,
      "Ġpassed": 2326,
      "Ġoriginal": 2327,
      "Ġunexpected": 2328,
      "Ġconservative": 2329,
      "Ġhistory": 2330,
      "Ġencour": 2331,
      "Ġexpensive": 2332,
      "Ġassoci": 2333,
      "ĠStratton": 2334,
      "ĠAtlantic": 2335,
      "Do": 2336,
      "RY": 2337,
      "The": 2338,
      "aven": 2339,
      "ker": 2340,
      "lud": 2341,
      "overy": 2342,
      "rib": 2343,
      "use": 2344,
      "wo": 2345,
      "yer": 2346,
      "Ġ'": 2347,
      "Ġhat": 2348,
      "Ġir": 2349,
      "Ġtight": 2350,
      "Ġsal": 2351,
      "Ġsore": 2352,
      "Ġmess": 2353,
      "erate": 2354,
      "Ġtoget": 2355,
      "Ġpast": 2356,
      "Ġda": 2357,
      "ority": 2358,
      "Ġinev": 2359,
      "Ġwaste": 2360,
      "Ġnor": 2361,
      "Ġgoss": 2362,
      "Ġhit": 2363,
      "Ġstate": 2364,
      "omet": 2365,
      "ĠWest": 2366,
      "Ġkid": 2367,
      "ĠHave": 2368,
      "Ġneither": 2369,
      "ĠStates": 2370,
      "Ġdead": 2371,
      "Ġsho": 2372,
      "Ġexam": 2373,
      "urities": 2374,
      "Ġprov": 2375,
      "ements": 2376,
      "Ġabsolutely": 2377,
      "ilities": 2378,
      "ĠMar": 2379,
      "Ġhunch": 2380,
      "ĠRock": 2381,
      "Ġunus": 2382,
      "ĠProd": 2383,
      "ivity": 2384,
      "oseph": 2385,
      "Ġgets": 2386,
      "ĠEd": 2387,
      "Ġseeing": 2388,
      "ĠChic": 2389,
      "Ġvoice": 2390,
      "Ġeng": 2391,
      "ago": 2392,
      "aged": 2393,
      "Ġtells": 2394,
      "Ġyours": 2395,
      "Ġprevious": 2396,
      "Ġwants": 2397,
      "ĠJuly": 2398,
      "ĠJoseph": 2399,
      "ĠFl": 2400,
      "ĠGord": 2401,
      "Ġcrop": 2402,
      "others": 2403,
      "Ġpaying": 2404,
      "Ġbanker": 2405,
      "Ġimpress": 2406,
      "Ġspo": 2407,
      "Ġcleaned": 2408,
      "Ġstudied": 2409,
      "Ġhelped": 2410,
      "Ġopening": 2411,
      "Ġconsidered": 2412,
      "Ġshows": 2413,
      "Ġpurp": 2414,
      "Ġexclusively": 2415,
      "Ġfairly": 2416,
      "ĠUnited": 2417,
      "Ġmanipulators": 2418,
      "crib": 2419,
      "Ġchief": 2420,
      "Ġstatements": 2421,
      "Ġprospect": 2422,
      "Ġbooks": 2423,
      "Ġdeveloped": 2424,
      "Ġwonderful": 2425,
      "Ġprinted": 2426,
      "Ġpurchases": 2427,
      "Ġfamous": 2428,
      "Ġopinion": 2429,
      "ferred": 2430,
      "Ġlegit": 2431,
      "Ġprotect": 2432,
      "Ġrules": 2433,
      "Ġprecise": 2434,
      "Ġutterly": 2435,
      "Ġperfectly": 2436,
      "Ġtogether": 2437,
      "ĠChicago": 2438,
      "ĠGordon": 2439,
      "Gs": 2440,
      "How": 2441,
      "If": 2442,
      "cial": 2443,
      "hr": 2444,
      "lmer": 2445,
      "ri": 2446,
      "tun": 2447,
      "ub": 2448,
      "ured": 2449,
      "uced": 2450,
      "xious": 2451,
      "yond": 2452,
      "Ġed": 2453,
      "hester": 2454,
      "Ġapt": 2455,
      "ination": 2456,
      "Ġwire": 2457,
      "Ġocc": 2458,
      "Ġmo": 2459,
      "Ġmain": 2460,
      "reg": 2461,
      "reme": 2462,
      "Ġben": 2463,
      "Ġbased": 2464,
      "itial": 2465,
      "Ġfight": 2466,
      "Ġfine": 2467,
      "Ġfun": 2468,
      "Ġfast": 2469,
      "Ġphil": 2470,
      "Ġdouble": 2471,
      "ism": 2472,
      "edi": 2473,
      "Ġinitial": 2474,
      "ang": 2475,
      "ath": 2476,
      "ats": 2477,
      "atur": 2478,
      "Ġbears": 2479,
      "Ġbeyond": 2480,
      "Ġlaw": 2481,
      "Ġhot": 2482,
      "Ġstep": 2483,
      "Ġyelled": 2484,
      "Ġfortun": 2485,
      "Ġpriv": 2486,
      "ĠSuch": 2487,
      "ĠSomet": 2488,
      "Ġanxious": 2489,
      "ĠBGs": 2490,
      "ĠHow": 2491,
      "ĠHood": 2492,
      "illy": 2493,
      "Ġupward": 2494,
      "osing": 2495,
      "iped": 2496,
      "ources": 2497,
      "Ġalread": 2498,
      "Ġhung": 2499,
      "Ġcol": 2500,
      "ĠRog": 2501,
      "Ġuns": 2502,
      "ĠERY": 2503,
      "ĠElmer": 2504,
      "Ġways": 2505,
      "ĠChester": 2506,
      "Ġjum": 2507,
      "Ġvan": 2508,
      "Ġdollar": 2509,
      "ume": 2510,
      "itting": 2511,
      "Ġface": 2512,
      "Ġgrate": 2513,
      "Ġgreatest": 2514,
      "ĠGP": 2515,
      "ĠDon": 2516,
      "Ġremark": 2517,
      "Ġbrains": 2518,
      "Ġsometimes": 2519,
      "Ġinstantly": 2520,
      "Ġkindly": 2521,
      "Ġkeeps": 2522,
      "Ġtickets": 2523,
      "Ġdesire": 2524,
      "Ġsecurities": 2525,
      "like": 2526,
      "ucts": 2527,
      "Ġdirector": 2528,
      "Ġpractically": 2529,
      "Ġminute": 2530,
      "Ġcovering": 2531,
      "Ġsuckers": 2532,
      "Ġdiscove": 2533,
      "Ġafford": 2534,
      "Ġoutside": 2535,
      "Ġproposition": 2536,
      "Ġintelligently": 2537,
      "Ġprincipal": 2538,
      "azy": 2539,
      "Ġincrease": 2540,
      "Ġdebts": 2541,
      "ĠAlso": 2542,
      "Ġquestion": 2543,
      "Ġdoubt": 2544,
      "Ġimportant": 2545,
      "estern": 2546,
      "Ġrallies": 2547,
      "ridge": 2548,
      "Ġdozen": 2549,
      "Ġsharp": 2550,
      "Ġadvantage": 2551,
      "ĠProducts": 2552,
      "Ġprecisely": 2553,
      "Ġalready": 2554,
      "ĠRogers": 2555,
      "15": 2556,
      "70": 2557,
      "Oh": 2558,
      "aut": 2559,
      "air": 2560,
      "cent": 2561,
      "ches": 2562,
      "gain": 2563,
      "iver": 2564,
      "ike": 2565,
      "son": 2566,
      "ug": 2567,
      "uci": 2568,
      "ĠV": 2569,
      "Ġign": 2570,
      "Ġtaught": 2571,
      "inct": 2572,
      "Ġserv": 2573,
      "Ġma": 2574,
      "Ġmot": 2575,
      "ream": 2576,
      "Ġcam": 2577,
      "aster": 2578,
      "ison": 2579,
      "orld": 2580,
      "arter": 2581,
      "Ġinact": 2582,
      "anch": 2583,
      "Ġnight": 2584,
      "Ġbeh": 2585,
      "Ġlate": 2586,
      "Ġlines": 2587,
      "ĠTin": 2588,
      "Ġitem": 2589,
      "als": 2590,
      "Ġear": 2591,
      "Ġele": 2592,
      "Ġforce": 2593,
      "Ġang": 2594,
      "ĠWorld": 2595,
      "ĠBert": 2596,
      "Ġwhom": 2597,
      "opper": 2598,
      "Ġtrades": 2599,
      "Ġproceed": 2600,
      "quid": 2601,
      "quand": 2602,
      "Ġcold": 2603,
      "ists": 2604,
      "ards": 2605,
      "ĠPart": 2606,
      "ĠPost": 2607,
      "ĠPete": 2608,
      "Ġpoor": 2609,
      "ĠEven": 2610,
      "Ġspend": 2611,
      "Ġbusy": 2612,
      "Ġnevertheless": 2613,
      "Ġprevail": 2614,
      "Ġpreferred": 2615,
      "Ġliquid": 2616,
      "ĠLarry": 2617,
      "ĠLuci": 2618,
      "Ġspeculating": 2619,
      "itted": 2620,
      "ĠGreat": 2621,
      "ĠGates": 2622,
      "ĠInst": 2623,
      "Ġplays": 2624,
      "Ġcrazy": 2625,
      "Ġresources": 2626,
      "Ġlooks": 2627,
      "Ġimpul": 2628,
      "ĠKane": 2629,
      "ability": 2630,
      "Ġpress": 2631,
      "Ġpresent": 2632,
      "Ġoperation": 2633,
      "Ġloan": 2634,
      "Ġbelief": 2635,
      "Ġdraw": 2636,
      "Ġinfl": 2637,
      "Ġattention": 2638,
      "Ġprofessionals": 2639,
      "Ġscale": 2640,
      "Ġexplain": 2641,
      "Ġmember": 2642,
      "Ġnewspaper": 2643,
      "meyer": 2644,
      "Ġsens": 2645,
      "Ġproperty": 2646,
      "Ġdividends": 2647,
      "Ġnecessarily": 2648,
      "Ġextreme": 2649,
      "Ġoutsiders": 2650,
      "Ġfailed": 2651,
      "Ġdispose": 2652,
      "Ġlistened": 2653,
      "Ġauth": 2654,
      "icient": 2655,
      "Ġcreditors": 2656,
      "Ġheavily": 2657,
      "Ġincreasing": 2658,
      "Ġtempor": 2659,
      "Ġeffect": 2660,
      "Ġallowed": 2661,
      "ĠPercy": 2662,
      "ĠPerhaps": 2663,
      "Ġleaders": 2664,
      "Ġborrow": 2665,
      "Ġexplanations": 2666,
      "Ġcomplete": 2667,
      "Ġobviously": 2668,
      "Ġfixed": 2669,
      "Ġdeliber": 2670,
      "Ġdaily": 2671,
      "Ġinevitable": 2672,
      "Ġgossip": 2673,
      "ĠHavemeyer": 2674,
      "Ġexample": 2675,
      "ĠMarquand": 2676,
      "Ġbenef": 2677,
      "Ġhotel": 2678,
      "Ġgrateful": 2679,
      "Ġdiscovered": 2680,
      "ĠPartridge": 2681,
      "ĠLucius": 2682,
      "14": 2683,
      "100": 2684,
      "ein": 2685,
      "equ": 2686,
      "fr": 2687,
      "hip": 2688,
      "land": 2689,
      "lake": 2690,
      "men": 2691,
      "ny": 2692,
      "ners": 2693,
      "pic": 2694,
      "sit": 2695,
      "ters": 2696,
      "Ġes": 2697,
      "Ġide": 2698,
      "Ġty": 2699,
      "Ġtact": 2700,
      "Ġwat": 2701,
      "Ġwiped": 2702,
      "Ġsem": 2703,
      "Ġsil": 2704,
      "Ġbill": 2705,
      "erve": 2706,
      "Ġcut": 2707,
      "Ġcau": 2708,
      "Ġcatch": 2709,
      "ony": 2710,
      "lled": 2711,
      "Ġfut": 2712,
      "Ġdull": 2713,
      "edly": 2714,
      "aring": 2715,
      "Ġnine": 2716,
      "Ġhook": 2717,
      "Ġhesit": 2718,
      "aded": 2719,
      "alth": 2720,
      "imin": 2721,
      "Ġmyster": 2722,
      "lect": 2723,
      "ĠThese": 2724,
      "Ġrid": 2725,
      "ĠWestern": 2726,
      "ĠAmer": 2727,
      "ĠHar": 2728,
      "ĠHale": 2729,
      "Ġnearly": 2730,
      "Ġsum": 2731,
      "osit": 2732,
      "ighten": 2733,
      "anthr": 2734,
      "hington": 2735,
      "ĠMoney": 2736,
      "Ġhun": 2737,
      "Ġplac": 2738,
      "ield": 2739,
      "ppose": 2740,
      "Ġunf": 2741,
      "Ġunp": 2742,
      "ĠPr": 2743,
      "ĠPat": 2744,
      "ĠPres": 2745,
      "bled": 2746,
      "Ġacted": 2747,
      "Ġaction": 2748,
      "acy": 2749,
      "Ġclass": 2750,
      "Ġtipped": 2751,
      "Ġdecide": 2752,
      "ĠJust": 2753,
      "ittee": 2754,
      "Ġfaith": 2755,
      "Ġadvances": 2756,
      "Ġgras": 2757,
      "ĠWhenever": 2758,
      "Ġpeace": 2759,
      "Ġbranch": 2760,
      "Ġmathem": 2761,
      "Ġbanking": 2762,
      "Ġ10": 2763,
      "Ġimprove": 2764,
      "Ġsport": 2765,
      "Ġexperienced": 2766,
      "Ġundert": 2767,
      "Ġdeclared": 2768,
      "ĠUP": 2769,
      "Ġcontro": 2770,
      "Ġconclus": 2771,
      "Ġrealise": 2772,
      "Ġrecovery": 2773,
      "Ġquoted": 2774,
      "Ġrunning": 2775,
      "Ġmargins": 2776,
      "Ġregard": 2777,
      "Ġslow": 2778,
      "Ġcareer": 2779,
      "Ġcarefully": 2780,
      "Ġstronger": 2781,
      "ĠSuppose": 2782,
      "Ġconcerns": 2783,
      "ĠBefore": 2784,
      "Ġconvict": 2785,
      "Ġsigned": 2786,
      "Ġpleasure": 2787,
      "ĠComm": 2788,
      "Ġextent": 2789,
      "Ġaffect": 2790,
      "Ġlistening": 2791,
      "Ġwipe": 2792,
      "Ġwrote": 2793,
      "Ġplunger": 2794,
      "Ġprinciples": 2795,
      "Ġsuspic": 2796,
      "Ġ1901": 2797,
      "Ġheavy": 2798,
      "ĠBrown": 2799,
      "Ġplanned": 2800,
      "efeller": 2801,
      "Ġforese": 2802,
      "Ġquestions": 2803,
      "Ġwarning": 2804,
      "Ġcorre": 2805,
      "Ġdistrib": 2806,
      "Ġhurry": 2807,
      "Ġreputable": 2808,
      "Ġrisk": 2809,
      "ĠBoy": 2810,
      "Ġexpress": 2811,
      "Ġcontracts": 2812,
      "ended": 2813,
      "Ġexecution": 2814,
      "Ġrushed": 2815,
      "ĠWashington": 2816,
      "Ġunload": 2817,
      "Ġsales": 2818,
      "Ġlegitimate": 2819,
      "Ġphilanthr": 2820,
      "Ġprivate": 2821,
      "Ġbehind": 2822,
      "Ġearli": 2823,
      "ĠInstead": 2824,
      "Ġextremely": 2825,
      "ĠAmeric": 2826,
      "ĠHaley": 2827,
      "Ġmathemat": 2828,
      "Ġphilanthrop": 2829,
      ".,": 2830,
      "25": 2831,
      "And": 2832,
      "Is": 2833,
      "Sell": 2834,
      "ape": 2835,
      "dom": 2836,
      "doll": 2837,
      "ear": 2838,
      "iest": 2839,
      "look": 2840,
      "tom": 2841,
      "town": 2842,
      "uian": 2843,
      "Ġ-": 2844,
      "Ġtakes": 2845,
      "hered": 2846,
      "inced": 2847,
      "Ġwom": 2848,
      "Ġopt": 2849,
      "Ġsn": 2850,
      "Ġsing": 2851,
      "Ġsour": 2852,
      "Ġmagn": 2853,
      "har": 2854,
      "Ġbreat": 2855,
      "ĠIs": 2856,
      "oul": 2857,
      "Ġcal": 2858,
      "Ġcir": 2859,
      "Ġcalm": 2860,
      "Ġfre": 2861,
      "Ġfund": 2862,
      "Ġpapers": 2863,
      "Ġpsy": 2864,
      "Ġdam": 2865,
      "Ġdream": 2866,
      "enc": 2867,
      "ature": 2868,
      "Ġhaven": 2869,
      "Ġbeaut": 2870,
      "Ġlay": 2871,
      "Ġlun": 2872,
      "idents": 2873,
      "uted": 2874,
      "Ġstre": 2875,
      "icated": 2876,
      "Ġyach": 2877,
      "Ġreach": 2878,
      "Ġforg": 2879,
      "Ġyoung": 2880,
      "Ġmarked": 2881,
      "amed": 2882,
      "ĠWar": 2883,
      "cholog": 2884,
      "Ġdeath": 2885,
      "Ġfront": 2886,
      "Ġfrighten": 2887,
      "oses": 2888,
      "Ġexper": 2889,
      "Ġgold": 2890,
      "Ġanywhere": 2891,
      "Ġanyhow": 2892,
      "Ġconst": 2893,
      "Ġbuyers": 2894,
      "ĠMc": 2895,
      "ĠMond": 2896,
      "Ġhuge": 2897,
      "Ġshall": 2898,
      "Ġbecom": 2899,
      "Ġleave": 2900,
      "bles": 2901,
      "Ġadequ": 2902,
      "Ġagree": 2903,
      "Ġself": 2904,
      "Ġbigger": 2905,
      "Ġactivity": 2906,
      "Ġenorm": 2907,
      "Ġpointed": 2908,
      "Ġaccom": 2909,
      "Ġaccused": 2910,
      "Ġpreced": 2911,
      "ĠLet": 2912,
      "ĠJos": 2913,
      "ĠJames": 2914,
      "Ġgreatly": 2915,
      "Ġeverywhere": 2916,
      "ĠGuian": 2917,
      "Ġmanipulating": 2918,
      "Ġletting": 2919,
      "Ġbranc": 2920,
      "Ġneeds": 2921,
      "arer": 2922,
      "Ġmilliona": 2923,
      "Ġdisreg": 2924,
      "Ġdeclined": 2925,
      "Ġstarting": 2926,
      "ormal": 2927,
      "Ġchances": 2928,
      "Ġstrict": 2929,
      "Ġstruck": 2930,
      "Ġholders": 2931,
      "Ġbottom": 2932,
      "ĠNobody": 2933,
      "Ġslight": 2934,
      "Ġlesson": 2935,
      "Ġaccounts": 2936,
      "Ġcarried": 2937,
      "Ġexplained": 2938,
      "ĠAnother": 2939,
      "Ġevent": 2940,
      "Ġconvinced": 2941,
      "Ġbadly": 2942,
      "Ġstatement": 2943,
      "Ġextr": 2944,
      "Ġweakness": 2945,
      "Ġnatural": 2946,
      "Ġwires": 2947,
      "Ġpati": 2948,
      "Ġexception": 2949,
      "Ġaccepted": 2950,
      "Ġpurchase": 2951,
      "Ġaccumulate": 2952,
      "Ġaccumulated": 2953,
      "ĠBrothers": 2954,
      "Ġclique": 2955,
      "Ġmoderate": 2956,
      "Ġ1915": 2957,
      "Ġopinions": 2958,
      "Ġgambling": 2959,
      "Ġwisdom": 2960,
      "Ġbasic": 2961,
      "Ġmethods": 2962,
      "Ġsatisfied": 2963,
      "rupt": 2964,
      "shop": 2965,
      "Ġcharge": 2966,
      "Ġuncom": 2967,
      "Ġappeal": 2968,
      "Ġimagine": 2969,
      "Ġtrend": 2970,
      "Ġtouched": 2971,
      "Ġsteady": 2972,
      "ĠSouthern": 2973,
      "Ġawful": 2974,
      "Ġeyes": 2975,
      "Ġannou": 2976,
      "Ġsucceeded": 2977,
      "Ġtendency": 2978,
      "Ġanticipate": 2979,
      "Ġtelegraph": 2980,
      "Ġautomob": 2981,
      "Ġassociates": 2982,
      "luded": 2983,
      "Ġmessage": 2984,
      "ĠWestlake": 2985,
      "ĠRockefeller": 2986,
      "Ġunusual": 2987,
      "Ġeduc": 2988,
      "Ġremarkable": 2989,
      "Ġignor": 2990,
      "Ġcamp": 2991,
      "Ġundertake": 2992,
      "Ġcorrect": 2993,
      "Ġearlier": 2994,
      "dollar": 2995,
      "Ġsingle": 2996,
      "Ġpsycholog": 2997,
      "ĠMonday": 2998,
      "Ġenormous": 2999,
      "ĠGuiana": 3000,
      "Ġbranches": 3001,
      "120": 3002,
      "37": 3003,
      "300": 3004,
      "Not": 3005,
      "br": 3006,
      "eg": 3007,
      "ey": 3008,
      "eople": 3009,
      "fere": 3010,
      "hle": 3011,
      "hold": 3012,
      "iet": 3013,
      "iod": 3014,
      "jo": 3015,
      "just": 3016,
      "lied": 3017,
      "my": 3018,
      "ming": 3019,
      "nect": 3020,
      "oard": 3021,
      "ober": 3022,
      "ron": 3023,
      "ross": 3024,
      "su": 3025,
      "tal": 3026,
      "ties": 3027,
      "two": 3028,
      "uff": 3029,
      "vent": 3030,
      "Ġ5": 3031,
      "Ġtas": 3032,
      "Ġtill": 3033,
      "Ġterm": 3034,
      "hest": 3035,
      "Ġavail": 3036,
      "Ġafr": 3037,
      "Ġwind": 3038,
      "Ġwife": 3039,
      "Ġoats": 3040,
      "Ġsle": 3041,
      "Ġsorts": 3042,
      "Ġsilly": 3043,
      "Ġmor": 3044,
      "Ġbit": 3045,
      "oud": 3046,
      "Ġtotal": 3047,
      "Ġcock": 3048,
      "ingly": 3049,
      "Ġfac": 3050,
      "Ġpha": 3051,
      "Ġdi": 3052,
      "Ġdick": 3053,
      "Ġdistance": 3054,
      "ense": 3055,
      "ences": 3056,
      "ises": 3057,
      "orid": 3058,
      "arant": 3059,
      "att": 3060,
      "Ġnerv": 3061,
      "Ġled": 3062,
      "Ġgent": 3063,
      "Ġgiving": 3064,
      "etic": 3065,
      "iday": 3066,
      "Ġstories": 3067,
      "icial": 3068,
      "Ġheart": 3069,
      "ental": 3070,
      "Ġyes": 3071,
      "Ġmeet": 3072,
      "Ġasking": 3073,
      "Ġbuild": 3074,
      "ĠSay": 3075,
      "ctober": 3076,
      "Ġdope": 3077,
      "Ġtrain": 3078,
      "ĠBl": 3079,
      "ĠAb": 3080,
      "ĠAm": 3081,
      "ĠHen": 3082,
      "Ġdear": 3083,
      "aint": 3084,
      "ĠOctober": 3085,
      "Ġsells": 3086,
      "Ġweren": 3087,
      "Ġcomb": 3088,
      "Ġcomfortable": 3089,
      "quator": 3090,
      "Ġanyone": 3091,
      "Ġconnect": 3092,
      "Ġwhenever": 3093,
      "ĠHearn": 3094,
      "ili": 3095,
      "akers": 3096,
      "ĠMay": 3097,
      "Ġcoat": 3098,
      "isten": 3099,
      "ĠNever": 3100,
      "ĠPl": 3101,
      "ĠPeople": 3102,
      "acked": 3103,
      "Ġintimate": 3104,
      "Ġposted": 3105,
      "ĠEquator": 3106,
      "Ġtwel": 3107,
      "Ġquarter": 3108,
      "Ġworry": 3109,
      "Ġvac": 3110,
      "Ġvol": 3111,
      "Ġbegun": 3112,
      "Ġcourage": 3113,
      "Ġthinks": 3114,
      "Ġafterward": 3115,
      "Ġclosing": 3116,
      "Ġbroken": 3117,
      "Ġaccident": 3118,
      "Ġtax": 3119,
      "Ġgrow": 3120,
      "Ġgrad": 3121,
      "Ġgrain": 3122,
      "ĠDid": 3123,
      "Ġremind": 3124,
      "Ġlikely": 3125,
      "Ġperm": 3126,
      "Ġperiod": 3127,
      "ĠThose": 3128,
      "Ġjustified": 3129,
      "Ġresp": 3130,
      "Ġinstinct": 3131,
      "Ġhappy": 3132,
      "Ġcases": 3133,
      "Ġdeals": 3134,
      "Ġspring": 3135,
      "Ġchaps": 3136,
      "Ġdeclines": 3137,
      "Ġindeed": 3138,
      "Ġeasier": 3139,
      "Ġbrokerage": 3140,
      "Ġsuccessfully": 3141,
      "ibility": 3142,
      "Ġsmile": 3143,
      "Ġincl": 3144,
      "Ġconcluded": 3145,
      "Ġchanges": 3146,
      "Ġpresently": 3147,
      "Ġbreaks": 3148,
      "Ġsimple": 3149,
      "Ġloans": 3150,
      "Ġrecall": 3151,
      "Ġdescrib": 3152,
      "Ġbelieved": 3153,
      "Ġacross": 3154,
      "ĠWilliam": 3155,
      "Ġregret": 3156,
      "Ġassured": 3157,
      "Ġoperators": 3158,
      "Ġscar": 3159,
      "Ġpractices": 3160,
      "Ġmemory": 3161,
      "Ġinsisted": 3162,
      "Ġconvinc": 3163,
      "ĠEverything": 3164,
      "Ġwords": 3165,
      "Ġpleasant": 3166,
      "Ġpolic": 3167,
      "Ġfailure": 3168,
      "view": 3169,
      "Ġsuspect": 3170,
      "Ġaccordance": 3171,
      "Ġ1907": 3172,
      "Ġformed": 3173,
      "Ġexpenses": 3174,
      "Ġfavor": 3175,
      "Ġbooms": 3176,
      "Ġhours": 3177,
      "ĠFrom": 3178,
      "Ġcrossed": 3179,
      "Ġsuddenly": 3180,
      "Ġsurpr": 3181,
      "Ġexplanation": 3182,
      "Ġurg": 3183,
      "Ġdetails": 3184,
      "Ġviews": 3185,
      "Ġstayed": 3186,
      "Ġadmit": 3187,
      "Ġimmedi": 3188,
      "Ġtransactions": 3189,
      "Ġcontinued": 3190,
      "Ġadvertising": 3191,
      "hundred": 3192,
      "Ġestabl": 3193,
      "Ġnumber": 3194,
      "Ġobservation": 3195,
      "Ġdefinitely": 3196,
      "Ġconservatively": 3197,
      "Ġengine": 3198,
      "ĠFlorid": 3199,
      "Ġoccas": 3200,
      "Ġfortune": 3201,
      "ĠSometimes": 3202,
      "Ġvanity": 3203,
      "Ġmaj": 3204,
      "Ġinactive": 3205,
      "Ġitems": 3206,
      "Ġliquidate": 3207,
      "Ġinflu": 3208,
      "Ġdeliberately": 3209,
      "Ġsemi": 3210,
      "Ġmysterious": 3211,
      "Ġsource": 3212,
      "Ġprecedents": 3213,
      "Ġuncomfortable": 3214,
      "hlehem": 3215,
      "Ġterms": 3216,
      "Ġafraid": 3217,
      "Ġdickens": 3218,
      "Ġgentle": 3219,
      "ĠHearne": 3220,
      "ĠEquatorial": 3221,
      "Ġtwelve": 3222,
      "Ġvacation": 3223,
      "ĠFlorida": 3224,
      "13": 3225,
      "150": 3226,
      "130": 3227,
      "200": 3228,
      "35": 3229,
      "60": 3230,
      "Are": 3231,
      "Dev": 3232,
      "Mr": 3233,
      "Say": 3234,
      "Then": 3235,
      "ah": 3236,
      "aved": 3237,
      "aign": 3238,
      "bur": 3239,
      "bered": 3240,
      "cl": 3241,
      "con": 3242,
      "cum": 3243,
      "come": 3244,
      "eacon": 3245,
      "eering": 3246,
      "gam": 3247,
      "ho": 3248,
      "ially": 3249,
      "kn": 3250,
      "nter": 3251,
      "vin": 3252,
      "wr": 3253,
      "with": 3254,
      "wood": 3255,
      "Ġtout": 3256,
      "Ġsize": 3257,
      "Ġmad": 3258,
      "reading": 3259,
      "Ġbid": 3260,
      "Ġcreat": 3261,
      "itious": 3262,
      "onest": 3263,
      "Ġfat": 3264,
      "Ġfather": 3265,
      "Ġposit": 3266,
      "ari": 3267,
      "arat": 3268,
      "ati": 3269,
      "atic": 3270,
      "athered": 3271,
      "Ġnet": 3272,
      "Ġnormal": 3273,
      "Ġlat": 3274,
      "Ġlies": 3275,
      "Ġgathered": 3276,
      "otten": 3277,
      "ldom": 3278,
      "utch": 3279,
      "ominent": 3280,
      "vere": 3281,
      "ĠTur": 3282,
      "stood": 3283,
      "Ġheaven": 3284,
      "algam": 3285,
      "Ġeart": 3286,
      "Ġeag": 3287,
      "Ġyield": 3288,
      "Ġrever": 3289,
      "Ġreward": 3290,
      "leading": 3291,
      "ĠSure": 3292,
      "ĠSarat": 3293,
      "Ġanony": 3294,
      "key": 3295,
      "Ġrace": 3296,
      "Ġmarking": 3297,
      "ĠWal": 3298,
      "Ġmarketing": 3299,
      "ĠBur": 3300,
      "ĠBost": 3301,
      "ored": 3302,
      "ĠHaving": 3303,
      "Ġnear": 3304,
      "chn": 3305,
      "ify": 3306,
      "Ġdel": 3307,
      "Ġshot": 3308,
      "Ġshrew": 3309,
      "Ġfrank": 3310,
      "Ġmanner": 3311,
      "ortion": 3312,
      "Ġexag": 3313,
      "urb": 3314,
      "ustr": 3315,
      "Ġability": 3316,
      "ques": 3317,
      "ours": 3318,
      "onged": 3319,
      "ilt": 3320,
      "ĠMost": 3321,
      "ĠNe": 3322,
      "ives": 3323,
      "ival": 3324,
      "Ġintention": 3325,
      "ĠEng": 3326,
      "Ġworst": 3327,
      "Ġseek": 3328,
      "Ġjo": 3329,
      "Ġvast": 3330,
      "Ġvision": 3331,
      "Ġagg": 3332,
      "Ġagreed": 3333,
      "Ġseldom": 3334,
      "ishment": 3335,
      "Ġenable": 3336,
      "Ġenjo": 3337,
      "Ġbulls": 3338,
      "Ġpus": 3339,
      "Ġyourself": 3340,
      "Ġprem": 3341,
      "Ġprep": 3342,
      "Ġwels": 3343,
      "ump": 3344,
      "Ġdecent": 3345,
      "Ġreasonable": 3346,
      "Ġadvanc": 3347,
      "iously": 3348,
      "ĠDol": 3349,
      "Ġcommer": 3350,
      "Ġcrook": 3351,
      "Ġcompet": 3352,
      "ĠThink": 3353,
      "Ġletter": 3354,
      "Ġresort": 3355,
      "Ġfeet": 3356,
      "Ġcondition": 3357,
      "Ġgenerally": 3358,
      "Ġrepres": 3359,
      "Ġblank": 3360,
      "Ġprominent": 3361,
      "Ġsupposed": 3362,
      "Ġbreaking": 3363,
      "Ġchair": 3364,
      "Ġkinds": 3365,
      "Ġdeclining": 3366,
      "Ġinduce": 3367,
      "Ġindicated": 3368,
      "Ġcontent": 3369,
      "Ġsmash": 3370,
      "Ġhanded": 3371,
      "Ġfirmly": 3372,
      "Ġcorners": 3373,
      "Ġcornered": 3374,
      "Ġtechn": 3375,
      "Ġhighly": 3376,
      "Ġinteresting": 3377,
      "Ġoperating": 3378,
      "Ġpossess": 3379,
      "Ġwinter": 3380,
      "Ġwinning": 3381,
      "liable": 3382,
      "Ġlots": 3383,
      "izing": 3384,
      "cient": 3385,
      "Ġguard": 3386,
      "Ġguarant": 3387,
      "Ġstrongly": 3388,
      "Ġflat": 3389,
      "Ġexcell": 3390,
      "oga": 3391,
      "ĠAny": 3392,
      "Ġlimited": 3393,
      "Ġconvince": 3394,
      "Ġanswer": 3395,
      "mend": 3396,
      "Ġeighth": 3397,
      "Ġhearing": 3398,
      "Ġinvestor": 3399,
      "Ġadded": 3400,
      "Ġpolitely": 3401,
      "standing": 3402,
      "Ġtelegram": 3403,
      "Ġtelegrams": 3404,
      "Ġwild": 3405,
      "103": 3406,
      "Ġsuffering": 3407,
      "Ġchecked": 3408,
      "Ġviol": 3409,
      "Ġdevil": 3410,
      "Ġutil": 3411,
      "Ġappro": 3412,
      "Ġwatching": 3413,
      "Ġmodest": 3414,
      "ĠAlvin": 3415,
      "abled": 3416,
      "lington": 3417,
      "Ġwarnings": 3418,
      "Ġlucky": 3419,
      "Ġhurt": 3420,
      "Ġraiding": 3421,
      "Ġwishes": 3422,
      "Ġbasis": 3423,
      "Ġcurious": 3424,
      "Ġborrower": 3425,
      "Ġreputation": 3426,
      "Ġinterfere": 3427,
      "ĠBoard": 3428,
      "ucing": 3429,
      "Ġdangerous": 3430,
      "Ġtouch": 3431,
      "Ġhoping": 3432,
      "Ġequally": 3433,
      "ĠSouth": 3434,
      "Ġdepends": 3435,
      "Ġaccurately": 3436,
      "Ġblindly": 3437,
      "Ġlogical": 3438,
      "Ġlogically": 3439,
      "Ġacquaint": 3440,
      "Ġtransaction": 3441,
      "hua": 3442,
      "Ġbargain": 3443,
      "ĠBethlehem": 3444,
      "Ġlender": 3445,
      "Ġinsisting": 3446,
      "Ġprosperous": 3447,
      "Ġspoke": 3448,
      "Ġpurposes": 3449,
      "Ġprospects": 3450,
      "riot": 3451,
      "Ġmoves": 3452,
      "Ġmotor": 3453,
      "Ġangry": 3454,
      "Ġprevailing": 3455,
      "Ġsensational": 3456,
      "Ġauthor": 3457,
      "Ġidea": 3458,
      "Ġtype": 3459,
      "Ġwatched": 3460,
      "Ġfuture": 3461,
      "Ġhunches": 3462,
      "Ġgrasp": 3463,
      "Ġimprovement": 3464,
      "encies": 3465,
      "Ġstreng": 3466,
      "ĠMcDev": 3467,
      "ĠJoshua": 3468,
      "Ġstrictly": 3469,
      "Ġannounce": 3470,
      "Ġautomobile": 3471,
      "Ġcampaign": 3472,
      "holders": 3473,
      "Ġtask": 3474,
      "Ġavailable": 3475,
      "Ġsleep": 3476,
      "Ġdiagn": 3477,
      "ĠBlack": 3478,
      "ĠHenry": 3479,
      "Ġmajority": 3480,
      "cumst": 3481,
      "known": 3482,
      "ĠTurkey": 3483,
      "Ġearth": 3484,
      "Ġeager": 3485,
      "ĠSaratoga": 3486,
      "Ġanonym": 3487,
      "ĠBurlington": 3488,
      "ĠBoston": 3489,
      "Ġshrewd": 3490,
      "Ġexagger": 3491,
      "ĠEngland": 3492,
      "ĠDolan": 3493,
      "ĠMcDevitt": 3494,
      "90": 3495,
      "98": 3496,
      "Bu": 3497,
      "Don": 3498,
      "Go": 3499,
      "Look": 3500,
      "My": 3501,
      "Sure": 3502,
      "ax": 3503,
      "aight": 3504,
      "apt": 3505,
      "avers": 3506,
      "bs": 3507,
      "chan": 3508,
      "clock": 3509,
      "eight": 3510,
      "fast": 3511,
      "form": 3512,
      "gg": 3513,
      "hore": 3514,
      "lk": 3515,
      "law": 3516,
      "med": 3517,
      "mers": 3518,
      "metic": 3519,
      "nor": 3520,
      "night": 3521,
      "off": 3522,
      "pool": 3523,
      "ram": 3524,
      "rie": 3525,
      "sha": 3526,
      "set": 3527,
      "sue": 3528,
      "takers": 3529,
      "tah": 3530,
      "wn": 3531,
      "yram": 3532,
      "Ġ3": 3533,
      "Ġver": 3534,
      "Ġ30": 3535,
      "Ġtied": 3536,
      "Ġaid": 3537,
      "Ġaston": 3538,
      "inine": 3539,
      "inform": 3540,
      "Ġser": 3541,
      "Ġsitting": 3542,
      "Ġsoul": 3543,
      "Ġmach": 3544,
      "reate": 3545,
      "reced": 3546,
      "reement": 3547,
      "Ġbother": 3548,
      "ĠInd": 3549,
      "ery": 3550,
      "erous": 3551,
      "erman": 3552,
      "oubt": 3553,
      "Ġtoday": 3554,
      "Ġtown": 3555,
      "Ġcreate": 3556,
      "inger": 3557,
      "its": 3558,
      "iter": 3559,
      "itical": 3560,
      "itled": 3561,
      "Ġpet": 3562,
      "Ġpain": 3563,
      "Ġphy": 3564,
      "Ġpyram": 3565,
      "Ġdest": 3566,
      "enn": 3567,
      "orse": 3568,
      "orough": 3569,
      "orry": 3570,
      "atism": 3571,
      "Ġnames": 3572,
      "Ġhast": 3573,
      "Ġbell": 3574,
      "Ġlock": 3575,
      "Ġland": 3576,
      "Ġlie": 3577,
      "Ġlau": 3578,
      "Ġlove": 3579,
      "Ġlaid": 3580,
      "Ġlived": 3581,
      "Ġgreed": 3582,
      "Ġstage": 3583,
      "Ġstuck": 3584,
      "ĠTom": 3585,
      "lying": 3586,
      "Ġthus": 3587,
      "Ġthorough": 3588,
      "Ġhell": 3589,
      "Ġyell": 3590,
      "Ġrevers": 3591,
      "Ġasinine": 3592,
      "Ġstockholders": 3593,
      "Ġbunch": 3594,
      "Ġbulk": 3595,
      "ĠSince": 3596,
      "ĠSpr": 3597,
      "Ġrig": 3598,
      "Ġdoor": 3599,
      "Ġtrip": 3600,
      "ĠWait": 3601,
      "ĠBob": 3602,
      "Ġwhis": 3603,
      "ithmetic": 3604,
      "oop": 3605,
      "ĠHaven": 3606,
      "Ġnearer": 3607,
      "chison": 3608,
      "Ġsave": 3609,
      "osis": 3610,
      "Ġoutlook": 3611,
      "ĠOil": 3612,
      "Ġprol": 3613,
      "ember": 3614,
      "Ġcomfort": 3615,
      "Ġgover": 3616,
      "Ġconsolid": 3617,
      "Ġsomew": 3618,
      "iling": 3619,
      "rof": 3620,
      "Ġshake": 3621,
      "Ġplenty": 3622,
      "Ġnodd": 3623,
      "ĠNatur": 3624,
      "ĠRein": 3625,
      "Ġunre": 3626,
      "Ġunwise": 3627,
      "Ġthanked": 3628,
      "blood": 3629,
      "ĠYes": 3630,
      "unk": 3631,
      "unger": 3632,
      "Ġquit": 3633,
      "ĠChes": 3634,
      "ĠCopper": 3635,
      "Ġjiff": 3636,
      "Ġotherwise": 3637,
      "Ġpush": 3638,
      "Ġusing": 3639,
      "Ġowe": 3640,
      "ĠLiver": 3641,
      "Ġwealth": 3642,
      "Ġspeculate": 3643,
      "Ġpublicity": 3644,
      "using": 3645,
      "Ġadvising": 3646,
      "Ġgrand": 3647,
      "Ġground": 3648,
      "Ġgrab": 3649,
      "Ġbetting": 3650,
      "ĠGr": 3651,
      "ĠGet": 3652,
      "ĠGould": 3653,
      "ĠGover": 3654,
      "ĠGerman": 3655,
      "ĠDutch": 3656,
      "Ġpartner": 3657,
      "Ġremained": 3658,
      "Ġcrooked": 3659,
      "Ġperman": 3660,
      "Ġpercent": 3661,
      "Ġcompelled": 3662,
      "Ġcalling": 3663,
      "Ġart": 3664,
      "Ġartic": 3665,
      "Ġarithmetic": 3666,
      "thousand": 3667,
      "Ġletters": 3668,
      "Ġbrother": 3669,
      "Ġbrilli": 3670,
      "Ġfactor": 3671,
      "Ġfeed": 3672,
      "Ġfeared": 3673,
      "ĠExperi": 3674,
      "Ġinstant": 3675,
      "Ġconduct": 3676,
      "Ġsurely": 3677,
      "hylock": 3678,
      "ĠAtchison": 3679,
      "Ġexperiences": 3680,
      "Ġblack": 3681,
      "Ġblund": 3682,
      "Ġundoubt": 3683,
      "Ġpromise": 3684,
      "abilities": 3685,
      "Ġminds": 3686,
      "Ġremembered": 3687,
      "Ġdisapp": 3688,
      "plus": 3689,
      "ĠUtah": 3690,
      "Ġinde": 3691,
      "Ġeasiest": 3692,
      "Ġkeeping": 3693,
      "Ġbegins": 3694,
      "Ġsuccesses": 3695,
      "Ġtickers": 3696,
      "Ġsym": 3697,
      "Ġfinished": 3698,
      "Ġentitled": 3699,
      "Ġfirms": 3700,
      "ĠWhatever": 3701,
      "ateral": 3702,
      "Ġswelled": 3703,
      "erves": 3704,
      "Ġstraight": 3705,
      "Ġholding": 3706,
      "Ġinvari": 3707,
      "Ġunderwr": 3708,
      "Ġslips": 3709,
      "ization": 3710,
      "Ġconsisted": 3711,
      "Ġactively": 3712,
      "cially": 3713,
      "Ġcareless": 3714,
      "Ġguy": 3715,
      "ĠTravers": 3716,
      "Ġattack": 3717,
      "Ġattract": 3718,
      "Ġassert": 3719,
      "Ġelsewhere": 3720,
      "Ġpersist": 3721,
      "Ġexcited": 3722,
      "Ġexcuse": 3723,
      "Ġconsiderable": 3724,
      "Ġroad": 3725,
      "avag": 3726,
      "Ġreactions": 3727,
      "Ġfloating": 3728,
      "Ġevident": 3729,
      "Ġsmaller": 3730,
      "prominent": 3731,
      "crip": 3732,
      "cross": 3733,
      "Ġboys": 3734,
      "Ġbehaved": 3735,
      "ĠCommer": 3736,
      "Ġincreased": 3737,
      "Ġprobabilities": 3738,
      "Ġoutsider": 3739,
      "Ġpolice": 3740,
      "Ġdisposed": 3741,
      "Ġcommodity": 3742,
      "Ġwrite": 3743,
      "Ġpatriot": 3744,
      "Ġplunge": 3745,
      "Ġplunging": 3746,
      "Ġsufficient": 3747,
      "Ġtemper": 3748,
      "Ġtempt": 3749,
      "Ġwalking": 3750,
      "Ġfamili": 3751,
      "Ġefforts": 3752,
      "Ġreduced": 3753,
      "Ġclients": 3754,
      "Ġcliques": 3755,
      "Ġprompted": 3756,
      "Ġskill": 3757,
      "Ġraids": 3758,
      "poration": 3759,
      "Ġfoolish": 3760,
      "Ġdoubled": 3761,
      "Ġreckon": 3762,
      "Ġsubst": 3763,
      "Ġargu": 3764,
      "Ġsatisfact": 3765,
      "Ġsurplus": 3766,
      "Ġchart": 3767,
      "Ġinterview": 3768,
      "Ġstanding": 3769,
      "Ġsticking": 3770,
      "Ġrefused": 3771,
      "Ġreflect": 3772,
      "Ġadditional": 3773,
      "Ġrepeat": 3774,
      "Ġrepeated": 3775,
      "Ġpersonality": 3776,
      "Ġsqueeze": 3777,
      "Ġsqueezed": 3778,
      "Ġobliged": 3779,
      "Ġaware": 3780,
      "Ġpicked": 3781,
      "ashion": 3782,
      "Ġrumors": 3783,
      "ĠBetween": 3784,
      "ĠMoreover": 3785,
      "Ġabsorbed": 3786,
      "apped": 3787,
      "Ġcollateral": 3788,
      "Ġemplo": 3789,
      "Ġshoest": 3790,
      "Ġpurpose": 3791,
      "angers": 3792,
      "ĠHowever": 3793,
      "Ġjumped": 3794,
      "Ġservices": 3795,
      "Ġeleven": 3796,
      "Ġimpulse": 3797,
      "Ġtemporarily": 3798,
      "Ġbenefit": 3799,
      "Ġtactics": 3800,
      "Ġcaused": 3801,
      "Ġunpreced": 3802,
      "ĠPrices": 3803,
      "ĠPresident": 3804,
      "Ġcontrol": 3805,
      "Ġconclusion": 3806,
      "Ġconvictions": 3807,
      "Ġforeseen": 3808,
      "apeake": 3809,
      "hart": 3810,
      "Ġcalcul": 3811,
      "Ġcalmly": 3812,
      "Ġfrequ": 3813,
      "Ġyacht": 3814,
      "Ġbecomes": 3815,
      "Ġextravag": 3816,
      "Ġweaknesses": 3817,
      "ĠAmalgam": 3818,
      "ĠPlunger": 3819,
      "Ġvolume": 3820,
      "Ġscarce": 3821,
      "Ġconvincing": 3822,
      "Ġpolicy": 3823,
      "Ġgentleman": 3824,
      "Ġfrankly": 3825,
      "ĠNeither": 3826,
      "Ġexcellent": 3827,
      "cumstances": 3828,
      "Ġanonymous": 3829,
      "Ġphys": 3830,
      "Ġpyramid": 3831,
      "ĠNaturally": 3832,
      "ĠReinhart": 3833,
      "ĠChesapeake": 3834,
      "Ġjiffy": 3835,
      "ĠLiverpool": 3836,
      "Ġbrilliant": 3837,
      "Ġfamiliar": 3838,
      "Ġunprecedented": 3839,
      "ĠAmalgamated": 3840,
      "12": 3841,
      "114": 3842,
      "All": 3843,
      "Can": 3844,
      "For": 3845,
      "Hold": 3846,
      "Listen": 3847,
      "ares": 3848,
      "board": 3849,
      "che": 3850,
      "eb": 3851,
      "eu": 3852,
      "ech": 3853,
      "fashion": 3854,
      "gy": 3855,
      "hs": 3856,
      "hin": 3857,
      "his": 3858,
      "ipe": 3859,
      "jud": 3860,
      "kes": 3861,
      "lv": 3862,
      "lim": 3863,
      "liday": 3864,
      "mill": 3865,
      "mans": 3866,
      "morr": 3867,
      "named": 3868,
      "oken": 3869,
      "pat": 3870,
      "tim": 3871,
      "ues": 3872,
      "vo": 3873,
      "well": 3874,
      "zz": 3875,
      "zards": 3876,
      "Ġve": 3877,
      "Ġvers": 3878,
      "Ġtreat": 3879,
      "Ġain": 3880,
      "Ġair": 3881,
      "Ġach": 3882,
      "inary": 3883,
      "inner": 3884,
      "Ġwit": 3885,
      "Ġwater": 3886,
      "Ġtheories": 3887,
      "Ġson": 3888,
      "Ġsch": 3889,
      "Ġsets": 3890,
      "Ġsized": 3891,
      "Ġsorry": 3892,
      "Ġmir": 3893,
      "Ġmout": 3894,
      "Ġmiss": 3895,
      "Ġmail": 3896,
      "Ġmental": 3897,
      "reen": 3898,
      "retty": 3899,
      "Ġborn": 3900,
      "Ġbatt": 3901,
      "erie": 3902,
      "oubles": 3903,
      "Ġcert": 3904,
      "iters": 3905,
      "Ġfo": 3906,
      "Ġfit": 3907,
      "Ġfle": 3908,
      "Ġfish": 3909,
      "Ġfict": 3910,
      "Ġpee": 3911,
      "Ġpour": 3912,
      "Ġdut": 3913,
      "Ġdare": 3914,
      "Ġduly": 3915,
      "ase": 3916,
      "isen": 3917,
      "ishes": 3918,
      "orous": 3919,
      "arr": 3920,
      "aries": 3921,
      "Ġinex": 3922,
      "ann": 3923,
      "ania": 3924,
      "Ġnic": 3925,
      "Ġhazards": 3926,
      "Ġbeating": 3927,
      "Ġlif": 3928,
      "Ġlone": 3929,
      "Ġlag": 3930,
      "Ġgen": 3931,
      "Ġhorse": 3932,
      "ety": 3933,
      "ether": 3934,
      "Ġstared": 3935,
      "ĠThing": 3936,
      "ĠTime": 3937,
      "ayed": 3938,
      "sell": 3939,
      "Ġheight": 3940,
      "Ġep": 3941,
      "Ġecon": 3942,
      "Ġmeas": 3943,
      "Ġforth": 3944,
      "Ġforced": 3945,
      "Ġforward": 3946,
      "ley": 3947,
      "Ġyouth": 3948,
      "Ġnotion": 3949,
      "Ġnotwith": 3950,
      "ceive": 3951,
      "Ġbusted": 3952,
      "Ġissue": 3953,
      "ĠSell": 3954,
      "ĠSee": 3955,
      "ĠSatur": 3956,
      "Ġraw": 3957,
      "Ġdog": 3958,
      "Ġtroubles": 3959,
      "ĠWhe": 3960,
      "ĠBu": 3961,
      "ĠBank": 3962,
      "irable": 3963,
      "ĠAr": 3964,
      "Ġwhop": 3965,
      "ulous": 3966,
      "oof": 3967,
      "ĠHere": 3968,
      "ĠHob": 3969,
      "Ġdeb": 3970,
      "Ġsaved": 3971,
      "ighted": 3972,
      "ipped": 3973,
      "quake": 3974,
      "Ġthereby": 3975,
      "Ġbuys": 3976,
      "ants": 3977,
      "antial": 3978,
      "ilit": 3979,
      "iled": 3980,
      "iles": 3981,
      "ĠMan": 3982,
      "ĠMany": 3983,
      "Ġofficial": 3984,
      "iel": 3985,
      "ieve": 3986,
      "iece": 3987,
      "odore": 3988,
      "ĠRob": 3989,
      "Ġunjust": 3990,
      "ĠPar": 3991,
      "ĠPro": 3992,
      "ĠPenn": 3993,
      "ĠPretty": 3994,
      "iven": 3995,
      "Ġintrod": 3996,
      "Ġintended": 3997,
      "side": 3998,
      "Ġquiet": 3999,
      "Ġspeech": 4000,
      "ĠCity": 4001,
      "ĠCurb": 4002,
      "Ġvent": 4003,
      "Ġagents": 4004,
      "Ġagreement": 4005,
      "Ġenem": 4006,
      "Ġengr": 4007,
      "Ġpull": 4008,
      "acity": 4009,
      "Ġclam": 4010,
      "udent": 4011,
      "Ġdownward": 4012,
      "Ġaccustom": 4013,
      "Ġprevent": 4014,
      "Ġkeen": 4015,
      "Ġoverw": 4016,
      "Ġovernight": 4017,
      "ĠLittle": 4018,
      "Ġweather": 4019,
      "umed": 4020,
      "Ġdecision": 4021,
      "uss": 4022,
      "Ġfault": 4023,
      "Ġadvised": 4024,
      "Ġowned": 4025,
      "Ġgrat": 4026,
      "Ġgrown": 4027,
      "Ġgrowing": 4028,
      "ĠDave": 4029,
      "ĠDrew": 4030,
      "Ġcommittee": 4031,
      "Ġparty": 4032,
      "Ġpartners": 4033,
      "Ġholiday": 4034,
      "Ġshouldn": 4035,
      "Ġrespect": 4036,
      "Ġreserves": 4037,
      "Ġcertainty": 4038,
      "Ġtalks": 4039,
      "Ġfactors": 4040,
      "Ġbucketing": 4041,
      "ĠOnce": 4042,
      "Ġbankrupt": 4043,
      "Ġdealt": 4044,
      "Ġ18": 4045,
      "Ġimpati": 4046,
      "Ġcoterie": 4047,
      "Ġsports": 4048,
      "Ġfollows": 4049,
      "Ġblaz": 4050,
      "Ġpromising": 4051,
      "Ġpromised": 4052,
      "ĠKn": 4053,
      "ailing": 4054,
      "Ġdisg": 4055,
      "Ġindul": 4056,
      "Ġcontr": 4057,
      "igned": 4058,
      "Ġteach": 4059,
      "Ġchanging": 4060,
      "Ġpools": 4061,
      "Ġreality": 4062,
      "Ġrealised": 4063,
      "Ġstrate": 4064,
      "Ġfeelings": 4065,
      "Ġdesired": 4066,
      "Ġdesires": 4067,
      "Ġdesirable": 4068,
      "Ġmeaning": 4069,
      "Ġlisted": 4070,
      "Ġconfir": 4071,
      "Ġunderstood": 4072,
      "Ġfourth": 4073,
      "Ġfourteen": 4074,
      "Ġdrive": 4075,
      "Ġslick": 4076,
      "Ġslide": 4077,
      "Ġconsist": 4078,
      "Ġcareful": 4079,
      "Ġguide": 4080,
      "ucker": 4081,
      "Ġheaded": 4082,
      "Ġassets": 4083,
      "eler": 4084,
      "Ġcapacity": 4085,
      "Ġconsidering": 4086,
      "ogn": 4087,
      "ogether": 4088,
      "Ġcounted": 4089,
      "lease": 4090,
      "Ġsheet": 4091,
      "Ġclerks": 4092,
      "Ġteleph": 4093,
      "Ġearning": 4094,
      "Ġearnest": 4095,
      "Ġplease": 4096,
      "Ġproperly": 4097,
      "ĠDaniel": 4098,
      "Ġcounter": 4099,
      "Ġstatist": 4100,
      "Ġprobable": 4101,
      "Ġgives": 4102,
      "Ġfailures": 4103,
      "Ġpromoter": 4104,
      "Ġgamble": 4105,
      "Ġamounted": 4106,
      "Ġobserved": 4107,
      "Ġpropose": 4108,
      "Ġprinciple": 4109,
      "Ġ250": 4110,
      "Ġ1906": 4111,
      "Ġregularly": 4112,
      "Ġreduce": 4113,
      "Ġtransfer": 4114,
      "Ġdevices": 4115,
      "Ġsky": 4116,
      "Ġcontinue": 4117,
      "Ġsounds": 4118,
      "Ġlegal": 4119,
      "Ġperform": 4120,
      "Ġgambler": 4121,
      "Ġcurrent": 4122,
      "Ġcrosses": 4123,
      "Ġtests": 4124,
      "Ġtesting": 4125,
      "onsible": 4126,
      "Ġbringing": 4127,
      "logged": 4128,
      "Ġhandsome": 4129,
      "Ġconservatism": 4130,
      "Ġurged": 4131,
      "ĠSomebody": 4132,
      "upid": 4133,
      "Ġhopes": 4134,
      "Ġsteadily": 4135,
      "Ġrequired": 4136,
      "Ġrailroads": 4137,
      "Ġtricks": 4138,
      "ĠStillman": 4139,
      "Ġaccuracy": 4140,
      "sylv": 4141,
      "Ġraise": 4142,
      "Ġrumours": 4143,
      "Ġrush": 4144,
      "ĠWhite": 4145,
      "ĠWhile": 4146,
      "ĠWithout": 4147,
      "Ġcleverness": 4148,
      "Ġobservations": 4149,
      "Ġmercy": 4150,
      "Ġanalyse": 4151,
      "Ġdepart": 4152,
      "Ġdepress": 4153,
      "Ġarrived": 4154,
      "Ġdropped": 4155,
      "Ġdefinite": 4156,
      "Ġencouraged": 4157,
      "Ġirres": 4158,
      "Ġprovide": 4159,
      "ĠFlower": 4160,
      "Ġimpressive": 4161,
      "Ġprotected": 4162,
      "153": 4163,
      "Ġimpulses": 4164,
      "Ġpressure": 4165,
      "Ġtemporary": 4166,
      "Ġespe": 4167,
      "Ġsilence": 4168,
      "Ġhesitate": 4169,
      "ĠHarwood": 4170,
      "Ġsummer": 4171,
      "ĠCommittee": 4172,
      "ĠCommodore": 4173,
      "Ġexpressed": 4174,
      "ĠAmerican": 4175,
      "Ġmathematics": 4176,
      "Ġwoman": 4177,
      "Ġoptions": 4178,
      "Ġfundam": 4179,
      "Ġdamage": 4180,
      "Ġbeautif": 4181,
      "Ġfrightened": 4182,
      "Ġconstit": 4183,
      "Ġadequate": 4184,
      "Ġaccompl": 4185,
      "Ġmillionaire": 4186,
      "Ġdisregard": 4187,
      "Ġeventually": 4188,
      "Ġpatience": 4189,
      "Ġpsychology": 4190,
      "Ġwindow": 4191,
      "Ġmoral": 4192,
      "Ġnervous": 4193,
      "ĠAbout": 4194,
      "Ġcombination": 4195,
      "Ġresponsible": 4196,
      "Ġdescribed": 4197,
      "Ġsurprised": 4198,
      "Ġurgent": 4199,
      "Ġimmediately": 4200,
      "Ġestablished": 4201,
      "Ġoccasion": 4202,
      "Ġcreated": 4203,
      "Ġfatal": 4204,
      "Ġreverse": 4205,
      "ĠWalker": 4206,
      "Ġaggress": 4207,
      "Ġcommercial": 4208,
      "Ġguarantee": 4209,
      "Ġstrength": 4210,
      "Ġearthquake": 4211,
      "Ġreversal": 4212,
      "ĠSprings": 4213,
      "Ġprolonged": 4214,
      "Ġnodded": 4215,
      "ĠDutchman": 4216,
      "Ġpercentage": 4217,
      "Ġarticle": 4218,
      "Ġblunders": 4219,
      "Ġdisappoint": 4220,
      "Ġinvariably": 4221,
      "Ġunderwriting": 4222,
      "ĠCommercial": 4223,
      "Ġemploy": 4224,
      "Ġshoestring": 4225,
      "fashioned": 4226,
      "million": 4227,
      "morrow": 4228,
      "Ġschool": 4229,
      "Ġfictitious": 4230,
      "Ġduty": 4231,
      "Ġeconom": 4232,
      "Ġnotwithstanding": 4233,
      "ĠSaturday": 4234,
      "Ġwhopping": 4235,
      "ĠHoboken": 4236,
      "ĠPennsylv": 4237,
      "Ġengraved": 4238,
      "ĠPennsylvania": 4239,
      "\"-": 4240,
      "-\"": 4241,
      "29": 4242,
      "500": 4243,
      "99": 4244,
      "We": 4245,
      "When": 4246,
      "Where": 4247,
      "aim": 4248,
      "aver": 4249,
      "aff": 4250,
      "bed": 4251,
      "back": 4252,
      "com": 4253,
      "cast": 4254,
      "cious": 4255,
      "do": 4256,
      "eh": 4257,
      "eer": 4258,
      "eers": 4259,
      "for": 4260,
      "fact": 4261,
      "gers": 4262,
      "ghed": 4263,
      "gains": 4264,
      "ium": 4265,
      "ky": 4266,
      "kers": 4267,
      "lest": 4268,
      "lies": 4269,
      "lude": 4270,
      "limin": 4271,
      "mith": 4272,
      "mour": 4273,
      "money": 4274,
      "new": 4275,
      "nced": 4276,
      "pan": 4277,
      "ral": 4278,
      "ruct": 4279,
      "rict": 4280,
      "sent": 4281,
      "same": 4282,
      "to": 4283,
      "tar": 4284,
      "uous": 4285,
      "uine": 4286,
      "uition": 4287,
      "uised": 4288,
      "ufact": 4289,
      "vest": 4290,
      "vale": 4291,
      "vidence": 4292,
      "you": 4293,
      "yle": 4294,
      "Ġet": 4295,
      "Ġident": 4296,
      "Ġ50": 4297,
      "Ġtired": 4298,
      "Ġtuition": 4299,
      "hel": 4300,
      "Ġage": 4301,
      "Ġavo": 4302,
      "inate": 4303,
      "Ġwages": 4304,
      "Ġodd": 4305,
      "Ġsim": 4306,
      "Ġserved": 4307,
      "Ġmedi": 4308,
      "has": 4309,
      "half": 4310,
      "Ġbond": 4311,
      "era": 4312,
      "err": 4313,
      "Ġcity": 4314,
      "Ġcopper": 4315,
      "itive": 4316,
      "onies": 4317,
      "llie": 4318,
      "Ġfill": 4319,
      "Ġfond": 4320,
      "Ġfurn": 4321,
      "Ġfully": 4322,
      "Ġpi": 4323,
      "Ġpen": 4324,
      "Ġpion": 4325,
      "Ġple": 4326,
      "Ġpop": 4327,
      "Ġpage": 4328,
      "Ġpile": 4329,
      "Ġpict": 4330,
      "Ġder": 4331,
      "Ġden": 4332,
      "Ġded": 4333,
      "Ġdied": 4334,
      "Ġdinner": 4335,
      "ases": 4336,
      "asive": 4337,
      "ister": 4338,
      "isation": 4339,
      "orporation": 4340,
      "Ġwash": 4341,
      "Ġwasted": 4342,
      "Ġnint": 4343,
      "Ġham": 4344,
      "Ġbew": 4345,
      "Ġlight": 4346,
      "Ġlive": 4347,
      "Ġlack": 4348,
      "Ġlips": 4349,
      "Ġliter": 4350,
      "Ġgun": 4351,
      "Ġgained": 4352,
      "Ġgrew": 4353,
      "Ġhint": 4354,
      "Ġhonest": 4355,
      "etr": 4356,
      "otton": 4357,
      "otors": 4358,
      "idd": 4359,
      "Ġstun": 4360,
      "Ġstove": 4361,
      "Ġstreet": 4362,
      "Ġstorm": 4363,
      "Ġstyle": 4364,
      "icap": 4365,
      "icious": 4366,
      "ichest": 4367,
      "stein": 4368,
      "Ġthreat": 4369,
      "Ġhears": 4370,
      "Ġheap": 4371,
      "imist": 4372,
      "Ġyarn": 4373,
      "Ġreliable": 4374,
      "Ġprim": 4375,
      "Ġprone": 4376,
      "Ġprudent": 4377,
      "lem": 4378,
      "Ġasks": 4379,
      "Ġashore": 4380,
      "Ġnote": 4381,
      "Ġnotice": 4382,
      "ĠSc": 4383,
      "ĠSam": 4384,
      "ĠSame": 4385,
      "ĠShylock": 4386,
      "ĠSmith": 4387,
      "Ġanger": 4388,
      "Ġanno": 4389,
      "Ġrank": 4390,
      "Ġrichest": 4391,
      "Ġtrim": 4392,
      "Ġmark": 4393,
      "Ġmarvel": 4394,
      "ĠWil": 4395,
      "ĠWhere": 4396,
      "ĠWisen": 4397,
      "ĠBar": 4398,
      "ĠBro": 4399,
      "ĠBroad": 4400,
      "alling": 4401,
      "pecul": 4402,
      "ulty": 4403,
      "ores": 4404,
      "Ġking": 4405,
      "oose": 4406,
      "ĠHot": 4407,
      "Ġneg": 4408,
      "ifle": 4409,
      "ifying": 4410,
      "iform": 4411,
      "ĠStand": 4412,
      "Ġsun": 4413,
      "Ġsuit": 4414,
      "Ġsuper": 4415,
      "Ġdeem": 4416,
      "Ġshove": 4417,
      "Ġships": 4418,
      "terbur": 4419,
      "tervale": 4420,
      "ĠIts": 4421,
      "Ġsag": 4422,
      "Ġsav": 4423,
      "Ġsaving": 4424,
      "ige": 4425,
      "osp": 4426,
      "eep": 4427,
      "resh": 4428,
      "hanged": 4429,
      "Ġexchange": 4430,
      "Ġexten": 4431,
      "urd": 4432,
      "urred": 4433,
      "urance": 4434,
      "ĠObs": 4435,
      "Ġprog": 4436,
      "Ġablest": 4437,
      "Ġconce": 4438,
      "ongress": 4439,
      "antity": 4440,
      "Ġalter": 4441,
      "Ġalth": 4442,
      "aker": 4443,
      "ĠMuch": 4444,
      "ĠMac": 4445,
      "ĠMotors": 4446,
      "ators": 4447,
      "Ġplau": 4448,
      "Ġmoreover": 4449,
      "Ġcoax": 4450,
      "ĠNational": 4451,
      "ode": 4452,
      "indict": 4453,
      "Ġunable": 4454,
      "Ġunnamed": 4455,
      "Ġuniform": 4456,
      "Ġthank": 4457,
      "bler": 4458,
      "blank": 4459,
      "ackaw": 4460,
      "arters": 4461,
      "Ġintent": 4462,
      "ĠYe": 4463,
      "Ġpost": 4464,
      "Ġtwice": 4465,
      "Ġadhere": 4466,
      "Ġadapt": 4467,
      "une": 4468,
      "unition": 4469,
      "ption": 4470,
      "Ġquantity": 4471,
      "Ġworried": 4472,
      "Ġspeaking": 4473,
      "ĠCorporation": 4474,
      "ĠCotton": 4475,
      "ĠCongress": 4476,
      "icking": 4477,
      "Ġvit": 4478,
      "Ġvis": 4479,
      "Ġvice": 4480,
      "Ġvict": 4481,
      "Ġvital": 4482,
      "Ġvindict": 4483,
      "Ġagent": 4484,
      "Ġtheirs": 4485,
      "Ġbroad": 4486,
      "Ġseason": 4487,
      "ishness": 4488,
      "Ġacts": 4489,
      "Ġactions": 4490,
      "Ġenabled": 4491,
      "Ġprofitably": 4492,
      "Ġprofiteering": 4493,
      "aging": 4494,
      "Ġpulled": 4495,
      "Ġpuzz": 4496,
      "astic": 4497,
      "asters": 4498,
      "aced": 4499,
      "acles": 4500,
      "ounds": 4501,
      "Ġclos": 4502,
      "Ġaccidents": 4503,
      "aph": 4504,
      "appe": 4505,
      "ĠTherefore": 4506,
      "Ġprejud": 4507,
      "Ġprelimin": 4508,
      "Ġliked": 4509,
      "Ġliber": 4510,
      "Ġbearing": 4511,
      "ĠLackaw": 4512,
      "ĠJay": 4513,
      "ĠFix": 4514,
      "Ġgray": 4515,
      "Ġgrade": 4516,
      "Ġbets": 4517,
      "ĠGener": 4518,
      "ĠGib": 4519,
      "ĠGold": 4520,
      "ĠDeacon": 4521,
      "ĠIntervale": 4522,
      "Ġremain": 4523,
      "Ġremains": 4524,
      "urer": 4525,
      "Ġcrack": 4526,
      "Ġcritical": 4527,
      "Ġperple": 4528,
      "Ġhogg": 4529,
      "Ġbold": 4530,
      "Ġboast": 4531,
      "Ġmanipulated": 4532,
      "Ġresist": 4533,
      "Ġresume": 4534,
      "Ġmater": 4535,
      "Ġmatched": 4536,
      "Ġreaders": 4537,
      "pective": 4538,
      "pectable": 4539,
      "Ġpayments": 4540,
      "Ġimpro": 4541,
      "Ġfolly": 4542,
      "Ġgenerous": 4543,
      "Ġspent": 4544,
      "Ġspell": 4545,
      "ĠAtterbur": 4546,
      "xtended": 4547,
      "Ġblame": 4548,
      "Ġblood": 4549,
      "Ġdisappe": 4550,
      "pled": 4551,
      "ĠUs": 4552,
      "Ġease": 4553,
      "Ġfiguring": 4554,
      "ibilities": 4555,
      "Ġsynch": 4556,
      "Ġfinish": 4557,
      "Ġclean": 4558,
      "Ġincred": 4559,
      "Ġinclud": 4560,
      "Ġthrowing": 4561,
      "Ġconclude": 4562,
      "Ġentr": 4563,
      "Ġenter": 4564,
      "Ġhandicap": 4565,
      "Ġlearning": 4566,
      "Ġstudent": 4567,
      "Ġstudies": 4568,
      "Ġturns": 4569,
      "Ġturning": 4570,
      "Ġstops": 4571,
      "Ġbreakfast": 4572,
      "Ġswoop": 4573,
      "Ġcheer": 4574,
      "Ġstring": 4575,
      "Ġstrike": 4576,
      "Ġoperate": 4577,
      "Ġpossibilities": 4578,
      "Ġworks": 4579,
      "Ġloaded": 4580,
      "Ġrecogn": 4581,
      "Ġdesk": 4582,
      "Ġdesper": 4583,
      "Ġdeserved": 4584,
      "Ġinvol": 4585,
      "Ġbelieves": 4586,
      "Ġruns": 4587,
      "Ġsecure": 4588,
      "assion": 4589,
      "Ġunderlying": 4590,
      "Ġdram": 4591,
      "bted": 4592,
      "Ġquicker": 4593,
      "Ġsooner": 4594,
      "Ġconsum": 4595,
      "cience": 4596,
      "Ġfarmers": 4597,
      "Ġwisely": 4598,
      "Ġentirely": 4599,
      "Ġhighest": 4600,
      "Ġmanagement": 4601,
      "Ġscr": 4602,
      "Ġpersu": 4603,
      "Ġpersisted": 4604,
      "Ġflood": 4605,
      "Ġcapable": 4606,
      "Ġminor": 4607,
      "Ġcostly": 4608,
      "ortunate": 4609,
      "chand": 4610,
      "Ġchild": 4611,
      "Ġearned": 4612,
      "Ġpleasing": 4613,
      "Ġrange": 4614,
      "Ġweaker": 4615,
      "Ġaffair": 4616,
      "Ġwarm": 4617,
      "Ġdispassion": 4618,
      "Ġpowerful": 4619,
      "Ġretreat": 4620,
      "Ġwriters": 4621,
      "Ġsincere": 4622,
      "ician": 4623,
      "Ġsuspected": 4624,
      "Ġsuffer": 4625,
      "ĠJoe": 4626,
      "Ġlargest": 4627,
      "Ġaccumulation": 4628,
      "ecause": 4629,
      "Ġeffort": 4630,
      "Ġdevice": 4631,
      "Ġspecialty": 4632,
      "Ġappalling": 4633,
      "Ġsquare": 4634,
      "Ġnicely": 4635,
      "Ġobjected": 4636,
      "Ġskil": 4637,
      "Ġmisg": 4638,
      "Ġmisund": 4639,
      "ĠFrank": 4640,
      "Ġ1917": 4641,
      "ables": 4642,
      "Ġbushel": 4643,
      "Ġgamblers": 4644,
      "Ġadverse": 4645,
      "Ġsatisfy": 4646,
      "Ġunexpectable": 4647,
      "Ġdifficulty": 4648,
      "Ġilleg": 4649,
      "Ġexplo": 4650,
      "Ġimportance": 4651,
      "Ġreturned": 4652,
      "Ġappear": 4653,
      "Ġfallacy": 4654,
      "Ġrepeating": 4655,
      "Ġtremend": 4656,
      "Ġhoped": 4657,
      "Ġequal": 4658,
      "Ġrequires": 4659,
      "Ġrallied": 4660,
      "ĠCoffee": 4661,
      "Ġaccurate": 4662,
      "Ġblocks": 4663,
      "Ġacquired": 4664,
      "Ġadvertise": 4665,
      "uresque": 4666,
      "Ġbargains": 4667,
      "Ġeye": 4668,
      "Ġofferings": 4669,
      "Ġguessing": 4670,
      "Ġanticipating": 4671,
      "Ġwidely": 4672,
      "Ġmerchand": 4673,
      "Ġpunishment": 4674,
      "Ġpunishes": 4675,
      "Ġsolution": 4676,
      "Ġunloading": 4677,
      "ĠDoes": 4678,
      "Ġprosperity": 4679,
      "Ġemphas": 4680,
      "Ġrecklessly": 4681,
      "Ġencourage": 4682,
      "kerage": 4683,
      "Ġunusually": 4684,
      "Ġengaged": 4685,
      "Ġimpressively": 4686,
      "Ġspoken": 4687,
      "Ġchiefly": 4688,
      "Ġprospective": 4689,
      "ĠSomething": 4690,
      "Ġcolors": 4691,
      "Ġjump": 4692,
      "Ġvanished": 4693,
      "Ġsharply": 4694,
      "Ġangle": 4695,
      "Ġproceeded": 4696,
      "Ġspending": 4697,
      "Ġauthority": 4698,
      "Ġcompletely": 4699,
      "Ġcutting": 4700,
      "Ġplacing": 4701,
      "Ġunfair": 4702,
      "ĠPrice": 4703,
      "ĠPresently": 4704,
      "Ġcontrolled": 4705,
      "Ġregarded": 4706,
      "Ġslowly": 4707,
      "Ġconviction": 4708,
      "Ġforesee": 4709,
      "ĠAmerica": 4710,
      "Ġmathematical": 4711,
      "Ġwomen": 4712,
      "Ġmagnitude": 4713,
      "Ġbreath": 4714,
      "Ġcircul": 4715,
      "Ġcircumstances": 4716,
      "Ġfunds": 4717,
      "Ġbeauty": 4718,
      "Ġlunche": 4719,
      "Ġforgotten": 4720,
      "Ġexpert": 4721,
      "Ġexperts": 4722,
      "Ġadequately": 4723,
      "Ġaccompan": 4724,
      "Ġmillionaires": 4725,
      "Ġslightest": 4726,
      "Ġeducation": 4727,
      "Ġeducational": 4728,
      "Ġignorant": 4729,
      "Ġpsychological": 4730,
      "Ġfacilit": 4731,
      "Ġphase": 4732,
      "Ġphases": 4733,
      "Ġconnections": 4734,
      "Ġafterwards": 4735,
      "ĠDidn": 4736,
      "Ġpermit": 4737,
      "133": 4738,
      "class": 4739,
      "Ġpositive": 4740,
      "Ġlatter": 4741,
      "Ġjoin": 4742,
      "Ġenjoying": 4743,
      "Ġpremium": 4744,
      "Ġadvanced": 4745,
      "Ġcrooks": 4746,
      "Ġrepresented": 4747,
      "Ġacquaintances": 4748,
      "Ġannouncement": 4749,
      "Ġexaggerated": 4750,
      "Buying": 4751,
      "information": 4752,
      "Ġserious": 4753,
      "ĠIndeed": 4754,
      "Ġlaughed": 4755,
      "Ġyellow": 4756,
      "Ġwhisper": 4757,
      "Ġsomewhere": 4758,
      "ĠGray": 4759,
      "ĠExperience": 4760,
      "Ġundoubtedly": 4761,
      "Ġindebted": 4762,
      "Ġsympat": 4763,
      "Ġevidently": 4764,
      "Ġpatriotic": 4765,
      "Ġtemptation": 4766,
      "Ġreckoning": 4767,
      "Ġsubstantial": 4768,
      "Ġsatisfactory": 4769,
      "Ġcalculated": 4770,
      "Ġextravagant": 4771,
      "Ġscarcely": 4772,
      "manship": 4773,
      "Ġvend": 4774,
      "Ġwaterlogged": 4775,
      "Ġmouth": 4776,
      "Ġbattle": 4777,
      "Ġcertific": 4778,
      "Ġpouring": 4779,
      "Ġinexperi": 4780,
      "anna": 4781,
      "Ġgenuine": 4782,
      "ĠThings": 4783,
      "ĠWheeler": 4784,
      "ĠRobert": 4785,
      "Ġunjustified": 4786,
      "ĠParis": 4787,
      "ĠProvidence": 4788,
      "Ġenemies": 4789,
      "Ġaccustomed": 4790,
      "Ġoverwhel": 4791,
      "Ġbankruptcy": 4792,
      "Ġblazes": 4793,
      "ĠKnowing": 4794,
      "Ġindulge": 4795,
      "Ġcontrary": 4796,
      "Ġtelephone": 4797,
      "Ġespecially": 4798,
      "Ġaggressive": 4799,
      "raltar": 4800,
      "Ġavoid": 4801,
      "Ġodds": 4802,
      "Ġmedium": 4803,
      "Ġbonds": 4804,
      "Ġpicturesque": 4805,
      "Ġninth": 4806,
      "Ġannoy": 4807,
      "ĠWilson": 4808,
      "ĠWisenstein": 4809,
      "ĠStandard": 4810,
      "Ġalthough": 4811,
      "Ġuniformly": 4812,
      "Ġliberal": 4813,
      "ĠLackawanna": 4814,
      "ĠFixing": 4815,
      "ĠGeneral": 4816,
      "ĠGibraltar": 4817,
      "Ġperplex": 4818,
      "ĠAtterbury": 4819,
      "Ġsynchron": 4820,
      "Ġmisunder": 4821,
      "Ġluncheon": 4822,
      "Ġaccompanied": 4823,
      "Ġfacilitate": 4824,
      ".'": 4825,
      "16": 4826,
      "140": 4827,
      "125": 4828,
      "45": 4829,
      "72": 4830,
      "75": 4831,
      "Ab": 4832,
      "Bot": 4833,
      "Did": 4834,
      "Deacon": 4835,
      "Have": 4836,
      "Just": 4837,
      "Now": 4838,
      "Of": 4839,
      "Qu": 4840,
      "So": 4841,
      "To": 4842,
      "Take": 4843,
      "This": 4844,
      "Who": 4845,
      "bing": 4846,
      "bas": 4847,
      "bor": 4848,
      "bro": 4849,
      "book": 4850,
      "born": 4851,
      "co": 4852,
      "call": 4853,
      "cred": 4854,
      "cope": 4855,
      "ding": 4856,
      "ded": 4857,
      "ees": 4858,
      "eged": 4859,
      "fl": 4860,
      "fif": 4861,
      "gl": 4862,
      "go": 4863,
      "gged": 4864,
      "ggest": 4865,
      "gaph": 4866,
      "hood": 4867,
      "hus": 4868,
      "hical": 4869,
      "house": 4870,
      "ior": 4871,
      "ient": 4872,
      "iers": 4873,
      "ibl": 4874,
      "iance": 4875,
      "iations": 4876,
      "ixt": 4877,
      "ivers": 4878,
      "let": 4879,
      "lers": 4880,
      "loss": 4881,
      "liness": 4882,
      "lived": 4883,
      "lph": 4884,
      "mation": 4885,
      "mate": 4886,
      "mered": 4887,
      "making": 4888,
      "maker": 4889,
      "munition": 4890,
      "nment": 4891,
      "nces": 4892,
      "nosis": 4893,
      "of": 4894,
      "oke": 4895,
      "oeu": 4896,
      "par": 4897,
      "pres": 4898,
      "pond": 4899,
      "phy": 4900,
      "rim": 4901,
      "right": 4902,
      "rant": 4903,
      "sp": 4904,
      "sing": 4905,
      "sis": 4906,
      "say": 4907,
      "sight": 4908,
      "sized": 4909,
      "scrib": 4910,
      "sense": 4911,
      "sucker": 4912,
      "tr": 4913,
      "tle": 4914,
      "table": 4915,
      "tered": 4916,
      "time": 4917,
      "uate": 4918,
      "ubl": 4919,
      "uise": 4920,
      "vant": 4921,
      "war": 4922,
      "work": 4923,
      "water": 4924,
      "yal": 4925,
      "yman": 4926,
      "year": 4927,
      "Ġ8": 4928,
      "Ġid": 4929,
      "Ġess": 4930,
      "ĠQu": 4931,
      "Ġtable": 4932,
      "Ġtum": 4933,
      "heart": 4934,
      "hent": 4935,
      "Ġail": 4936,
      "ins": 4937,
      "insid": 4938,
      "Ġwore": 4939,
      "Ġwine": 4940,
      "Ġwood": 4941,
      "Ġwound": 4942,
      "Ġwishing": 4943,
      "Ġovere": 4944,
      "Ġsid": 4945,
      "Ġsad": 4946,
      "Ġsick": 4947,
      "Ġsord": 4948,
      "Ġsides": 4949,
      "Ġsne": 4950,
      "Ġmed": 4951,
      "Ġmother": 4952,
      "Ġmention": 4953,
      "Ġmaster": 4954,
      "ham": 4955,
      "rer": 4956,
      "reci": 4957,
      "rench": 4958,
      "Ġbed": 4959,
      "Ġbir": 4960,
      "Ġboss": 4961,
      "nder": 4962,
      "nday": 4963,
      "Ġtor": 4964,
      "Ġtone": 4965,
      "Ġcat": 4966,
      "Ġcard": 4967,
      "Ġcart": 4968,
      "Ġcared": 4969,
      "Ġcaught": 4970,
      "Ġcabled": 4971,
      "ingu": 4972,
      "ites": 4973,
      "itated": 4974,
      "itably": 4975,
      "itments": 4976,
      "onor": 4977,
      "Ġfly": 4978,
      "Ġfire": 4979,
      "Ġfaster": 4980,
      "Ġfinger": 4981,
      "Ġpad": 4982,
      "Ġpess": 4983,
      "Ġpred": 4984,
      "Ġpau": 4985,
      "Ġpound": 4986,
      "Ġportion": 4987,
      "Ġpiece": 4988,
      "Ġdom": 4989,
      "Ġdip": 4990,
      "Ġdie": 4991,
      "Ġdum": 4992,
      "Ġdress": 4993,
      "Ġdaz": 4994,
      "Ġdrove": 4995,
      "Ġdwell": 4996,
      "ened": 4997,
      "enator": 4998,
      "asing": 4999,
      "isions": 5000,
      "isode": 5001,
      "oring": 5002,
      "orter": 5003,
      "orbit": 5004,
      "Ġinno": 5005,
      "anim": 5006,
      "anket": 5007,
      "atically": 5008,
      "Ġnin": 5009,
      "Ġnone": 5010,
      "Ġnerve": 5011,
      "Ġnarr": 5012,
      "Ġhan": 5013,
      "Ġhair": 5014,
      "Ġbeings": 5015,
      "Ġlent": 5016,
      "Ġlab": 5017,
      "Ġloud": 5018,
      "Ġgif": 5019,
      "Ġgather": 5020,
      "Ġgang": 5021,
      "Ġgreen": 5022,
      "Ġhost": 5023,
      "Ġhors": 5024,
      "Ġhitting": 5025,
      "ott": 5026,
      "otes": 5027,
      "ldon": 5028,
      "Ġstave": 5029,
      "Ġstub": 5030,
      "Ġstarter": 5031,
      "Ġstuff": 5032,
      "Ġstupid": 5033,
      "ommend": 5034,
      "ica": 5035,
      "icide": 5036,
      "ĠTake": 5037,
      "ĠTod": 5038,
      "ĠTwo": 5039,
      "sters": 5040,
      "stige": 5041,
      "aying": 5042,
      "ows": 5043,
      "owed": 5044,
      "Ġthim": 5045,
      "sec": 5046,
      "see": 5047,
      "seen": 5048,
      "sequ": 5049,
      "Ġhealth": 5050,
      "ader": 5051,
      "ality": 5052,
      "iment": 5053,
      "ential": 5054,
      "Ġyester": 5055,
      "verted": 5056,
      "Ġmegaph": 5057,
      "Ġformer": 5058,
      "Ġpride": 5059,
      "Ġpriced": 5060,
      "Ġasc": 5061,
      "Ġaside": 5062,
      "elle": 5063,
      "Ġnoting": 5064,
      "Ġissu": 5065,
      "ĠSh": 5066,
      "ĠSme": 5067,
      "ction": 5068,
      "keep": 5069,
      "Ġram": 5070,
      "Ġrose": 5071,
      "Ġrac": 5072,
      "Ġroof": 5073,
      "Ġtrifle": 5074,
      "Ġorgan": 5075,
      "ĠWyman": 5076,
      "ĠBelle": 5077,
      "iring": 5078,
      "irst": 5079,
      "ĠAcc": 5080,
      "ĠAix": 5081,
      "ĠAlt": 5082,
      "ĠAdd": 5083,
      "ĠAgain": 5084,
      "ĠAug": 5085,
      "allowed": 5086,
      "Ġsoft": 5087,
      "ĠHera": 5088,
      "ching": 5089,
      "ifice": 5090,
      "ifest": 5091,
      "ifically": 5092,
      "illing": 5093,
      "Ġallies": 5094,
      "Ġalleged": 5095,
      "Ġsuggest": 5096,
      "Ġsuicide": 5097,
      "Ġdeep": 5098,
      "Ġdepr": 5099,
      "Ġdelus": 5100,
      "Ġshut": 5101,
      "Ġsail": 5102,
      "Ġsacr": 5103,
      "Ġknack": 5104,
      "igger": 5105,
      "Ġuptown": 5106,
      "Ġupset": 5107,
      "Ġmanufact": 5108,
      "Ġmanoeu": 5109,
      "Ġmanifest": 5110,
      "osite": 5111,
      "respond": 5112,
      "ighty": 5113,
      "hanges": 5114,
      "ops": 5115,
      "Ġexped": 5116,
      "Ġexcess": 5117,
      "Ġexceed": 5118,
      "Ġexorbit": 5119,
      "ury": 5120,
      "urity": 5121,
      "urphy": 5122,
      "ĠOh": 5123,
      "ĠOllie": 5124,
      "Ġsellers": 5125,
      "ustry": 5126,
      "empt": 5127,
      "Ġaboard": 5128,
      "Ġgolf": 5129,
      "Ġconting": 5130,
      "Ġbuyer": 5131,
      "Ġalar": 5132,
      "Ġalike": 5133,
      "ilty": 5134,
      "akable": 5135,
      "room": 5136,
      "ĠMiss": 5137,
      "ĠMurphy": 5138,
      "Ġhum": 5139,
      "Ġshape": 5140,
      "ateur": 5141,
      "Ġoffers": 5142,
      "Ġoffici": 5143,
      "Ġoffering": 5144,
      "ested": 5145,
      "Ġnoon": 5146,
      "iev": 5147,
      "ieved": 5148,
      "Ġcoinc": 5149,
      "istible": 5150,
      "adelph": 5151,
      "ĠRep": 5152,
      "Ġunw": 5153,
      "Ġunint": 5154,
      "Ġunfore": 5155,
      "Ġunlim": 5156,
      "ĠPoss": 5157,
      "ĠPhil": 5158,
      "ĠPlease": 5159,
      "Ġlean": 5160,
      "Ġleaving": 5161,
      "ivings": 5162,
      "ĠYet": 5163,
      "ĠYour": 5164,
      "ĠErie": 5165,
      "Ġsomeone": 5166,
      "unity": 5167,
      "pty": 5168,
      "Ġspect": 5169,
      "Ġseeks": 5170,
      "ĠCan": 5171,
      "ĠCome": 5172,
      "icken": 5173,
      "Ġjot": 5174,
      "Ġjack": 5175,
      "Ġjag": 5176,
      "Ġagency": 5177,
      "Ġsees": 5178,
      "Ġseat": 5179,
      "ossal": 5180,
      "inking": 5181,
      "Ġbegged": 5182,
      "isco": 5183,
      "Ġample": 5184,
      "Ġamaz": 5185,
      "Ġamusing": 5186,
      "Ġammunition": 5187,
      "Ġamateur": 5188,
      "Ġspecific": 5189,
      "acle": 5190,
      "acob": 5191,
      "Ġclock": 5192,
      "Ġclim": 5193,
      "Ġclaim": 5194,
      "ĠRemember": 5195,
      "vency": 5196,
      "arned": 5197,
      "udge": 5198,
      "Ġdowntown": 5199,
      "Ġaccuse": 5200,
      "Ġprestige": 5201,
      "Ġliars": 5202,
      "Ġlikes": 5203,
      "Ġtipsters": 5204,
      "asonable": 5205,
      "ĠLus": 5206,
      "ĠLater": 5207,
      "ĠListen": 5208,
      "Ġbacking": 5209,
      "Ġwel": 5210,
      "Ġwearing": 5211,
      "Ġolder": 5212,
      "Ġpublished": 5213,
      "Ġdecre": 5214,
      "Ġreasonably": 5215,
      "uses": 5216,
      "ĠJacob": 5217,
      "ĠFrench": 5218,
      "Ġfare": 5219,
      "Ġowner": 5220,
      "Ġowners": 5221,
      "Ġgriev": 5222,
      "Ġordered": 5223,
      "ĠGood": 5224,
      "ĠDel": 5225,
      "Ġcommitted": 5226,
      "Ġcommitments": 5227,
      "Ġremar": 5228,
      "Ġcrown": 5229,
      "Ġperceive": 5230,
      "Ġnowhere": 5231,
      "Ġhob": 5232,
      "ĠThus": 5233,
      "ertainly": 5234,
      "ipulation": 5235,
      "Ġboat": 5236,
      "Ġarm": 5237,
      "Ġpegged": 5238,
      "Ġresumed": 5239,
      "Ġbrag": 5240,
      "Ġbrothers": 5241,
      "Ġtale": 5242,
      "Ġmatters": 5243,
      "ection": 5244,
      "arent": 5245,
      "Ġfears": 5246,
      "ĠExchan": 5247,
      "Ġpays": 5248,
      "Ġinstru": 5249,
      "Ġbucketed": 5250,
      "Ġbucketeering": 5251,
      "Ġcashed": 5252,
      "Ġ113": 5253,
      "Ġlookout": 5254,
      "Ġwherever": 5255,
      "Ġspir": 5256,
      "Ġspons": 5257,
      "Ġreplied": 5258,
      "Ġblamed": 5259,
      "Ġblanket": 5260,
      "Ġundo": 5261,
      "Ġundist": 5262,
      "Ġpromises": 5263,
      "ĠKent": 5264,
      "ĠKeep": 5265,
      "Ġobey": 5266,
      "Ġfifth": 5267,
      "Ġdisag": 5268,
      "Ġkindness": 5269,
      "ĠUnder": 5270,
      "Ġinducing": 5271,
      "Ġindustry": 5272,
      "Ġstarts": 5273,
      "Ġdiffer": 5274,
      "Ġfinance": 5275,
      "Ġsmiling": 5276,
      "Ġsmoke": 5277,
      "Ġfewer": 5278,
      "Ġincon": 5279,
      "Ġincident": 5280,
      "Ġthrow": 5281,
      "Ġenthus": 5282,
      "Ġhandled": 5283,
      "Ġlearns": 5284,
      "Ġremembering": 5285,
      "ignant": 5286,
      "Ġstopping": 5287,
      "Ġopenly": 5288,
      "Ġswell": 5289,
      "Ġswore": 5290,
      "Ġswings": 5291,
      "Ġswear": 5292,
      "Ġswallowed": 5293,
      "Ġcheaper": 5294,
      "Ġstranger": 5295,
      "Ġstrangers": 5296,
      "ception": 5297,
      "Ġinterests": 5298,
      "Ġpossession": 5299,
      "Ġthroughout": 5300,
      "Ġfeels": 5301,
      "Ġfinding": 5302,
      "Ġloc": 5303,
      "Ġload": 5304,
      "Ġloved": 5305,
      "Ġloaned": 5306,
      "Ġrecover": 5307,
      "Ġrecommend": 5308,
      "lters": 5309,
      "Ġdesigned": 5310,
      "Ġending": 5311,
      "Ġsecret": 5312,
      "Ġwinner": 5313,
      "Ġmoments": 5314,
      "Ġhelpful": 5315,
      "aware": 5316,
      "uctions": 5317,
      "assed": 5318,
      "Ġconfess": 5319,
      "Ġdrunk": 5320,
      "Ġdribl": 5321,
      "Ġregul": 5322,
      "Ġcashier": 5323,
      "Ġslip": 5324,
      "Ġconscience": 5325,
      "Ġguilty": 5326,
      "Ġexpecting": 5327,
      "Ġdirectly": 5328,
      "Ġdirection": 5329,
      "Ġpursu": 5330,
      "Ġassum": 5331,
      "Ġmanaged": 5332,
      "Ġmanagers": 5333,
      "Ġscores": 5334,
      "Ġpractical": 5335,
      "ĠSunday": 5336,
      "Ġexciting": 5337,
      "Ġexchanges": 5338,
      "Ġdecidedly": 5339,
      "Ġconsideration": 5340,
      "Ġimpend": 5341,
      "Ġroasters": 5342,
      "ĠBear": 5343,
      "Ġreacted": 5344,
      "Ġinsuff": 5345,
      "Ġbeaten": 5346,
      "Ġsignal": 5347,
      "Ġharm": 5348,
      "Ġsafety": 5349,
      "Ġcosts": 5350,
      "Ġfinancially": 5351,
      "Ġopposite": 5352,
      "Ġeighty": 5353,
      "Ġdefine": 5354,
      "Ġdefect": 5355,
      "Ġchip": 5356,
      "Ġchicken": 5357,
      "expl": 5358,
      "Ġcredited": 5359,
      "Ġpleasantly": 5360,
      "Ġdiscovery": 5361,
      "Ġdiscuss": 5362,
      "Ġinvestors": 5363,
      "Ġwondered": 5364,
      "Ġstatute": 5365,
      "Ġspeculatively": 5366,
      "Ġwarrant": 5367,
      "Ġdisposing": 5368,
      "Ġretort": 5369,
      "Ġobsc": 5370,
      "Ġobserve": 5371,
      "Ġlimitations": 5372,
      "Ġvariously": 5373,
      "Ġhabits": 5374,
      "Ġhabitual": 5375,
      "iciently": 5376,
      "Ġproposed": 5377,
      "Ġdevelopments": 5378,
      "Ġplungers": 5379,
      "Ġpersonally": 5380,
      "Ġrooms": 5381,
      "Ġ299": 5382,
      "pended": 5383,
      "Ġsuspended": 5384,
      "Ġsuffered": 5385,
      "Ġopportunities": 5386,
      "Ġprinting": 5387,
      "Ġwalk": 5388,
      "Ġfamily": 5389,
      "Ġreceive": 5390,
      "Ġspecialists": 5391,
      "Ġspecialties": 5392,
      "301": 5393,
      "Ġappreci": 5394,
      "Ġapparent": 5395,
      "Ġceases": 5396,
      "Ġgrouch": 5397,
      "Ġcrowds": 5398,
      "Ġobjections": 5399,
      "Ġskin": 5400,
      "Ġmisleading": 5401,
      "Ġmisinformation": 5402,
      "Ġmoder": 5403,
      "Ġforever": 5404,
      "ĠFriday": 5405,
      "Ġreporters": 5406,
      "Ġ1914": 5407,
      "Ġ1916": 5408,
      "Ġcorrespond": 5409,
      "Ġdistinct": 5410,
      "Ġdistingu": 5411,
      "Ġdetermination": 5412,
      "heads": 5413,
      "Ġcurb": 5414,
      "Ġpanics": 5415,
      "Ġempty": 5416,
      "Ġsubject": 5417,
      "Ġsubmar": 5418,
      "Ġvalues": 5419,
      "Ġtested": 5420,
      "itania": 5421,
      "Ġsurm": 5422,
      "Ġcharts": 5423,
      "Ġproblems": 5424,
      "Ġindividuals": 5425,
      "Hey": 5426,
      "Ġillog": 5427,
      "Ġrefuse": 5428,
      "Ġurge": 5429,
      "Ġrises": 5430,
      "Ġrisks": 5431,
      "Ġunchanged": 5432,
      "Ġdetailed": 5433,
      "eeds": 5434,
      "Ġfalling": 5435,
      "Ġhistor": 5436,
      "Ġdifferently": 5437,
      "Ġimaginary": 5438,
      "Ġaccordingly": 5439,
      "Ġrequest": 5440,
      "Ġrequire": 5441,
      "ĠSheldon": 5442,
      "Ġtruthful": 5443,
      "Ġdepending": 5444,
      "Ġexecute": 5445,
      "Ġexecuted": 5446,
      "Ġsends": 5447,
      "Ġsending": 5448,
      "Ġrecords": 5449,
      "Ġrecorded": 5450,
      "Ġacquire": 5451,
      "Ġcontinuous": 5452,
      "Ġpocketbook": 5453,
      "Ġobligation": 5454,
      "Ġobligations": 5455,
      "Ġestate": 5456,
      "Ġnumbers": 5457,
      "Ġnumerous": 5458,
      "Ġannual": 5459,
      "Ġraft": 5460,
      "Ġraised": 5461,
      "Ġrumor": 5462,
      "ĠWho": 5463,
      "Ġfavourable": 5464,
      "Ġfavourite": 5465,
      "Ġfavourites": 5466,
      "Ġfreely": 5467,
      "Ġpunish": 5468,
      "Ġrelations": 5469,
      "Ġanalyses": 5470,
      "Ġanalysed": 5471,
      "Ġanalysis": 5472,
      "Ġsolve": 5473,
      "Ġdeposit": 5474,
      "ĠEuropean": 5475,
      "Ġarrival": 5476,
      "Ġspots": 5477,
      "Ġconfidential": 5478,
      "Ġtelegraphed": 5479,
      "Ġautomatically": 5480,
      "Ġemphat": 5481,
      "Ġencouraging": 5482,
      "Ġprovided": 5483,
      "Ġlegitim": 5484,
      "Ġaptitude": 5485,
      "Ġmoved": 5486,
      "Ġfighting": 5487,
      "Ġfunny": 5488,
      "Ġcolossal": 5489,
      "ĠVery": 5490,
      "Ġservice": 5491,
      "Ġmotives": 5492,
      "Ġinactivity": 5493,
      "Ġelement": 5494,
      "Ġproceeds": 5495,
      "Ġsensation": 5496,
      "Ġeffective": 5497,
      "Ġborrowed": 5498,
      "Ġdeliberate": 5499,
      "Ġesc": 5500,
      "Ġwaters": 5501,
      "Ġfutile": 5502,
      "ĠHarlem": 5503,
      "Ġhunky": 5504,
      "Ġplaced": 5505,
      "Ġplaces": 5506,
      "Ġunfortunate": 5507,
      "Ġunprof": 5508,
      "Ġgrasped": 5509,
      "Ġimprovements": 5510,
      "Ġsporting": 5511,
      "Ġconclusions": 5512,
      "Ġaffected": 5513,
      "Ġsuspicions": 5514,
      "Ġsuspicious": 5515,
      "Ġdistribute": 5516,
      "Ġdistributed": 5517,
      "Ġphilanthropic": 5518,
      "Ġphilanthropist": 5519,
      "Selling": 5520,
      "looking": 5521,
      "Ġsnap": 5522,
      "Ġbreathe": 5523,
      "ĠIsn": 5524,
      "ĠIsle": 5525,
      "Ġdamned": 5526,
      "Ġlunch": 5527,
      "Ġyachts": 5528,
      "Ġconstant": 5529,
      "Ġbecoming": 5530,
      "Ġselfsame": 5531,
      "Ġdisregarding": 5532,
      "Ġextra": 5533,
      "Ġignorance": 5534,
      "Ġcorrectly": 5535,
      "Nothing": 5536,
      "Ġfacilities": 5537,
      "attered": 5538,
      "Ġmeeting": 5539,
      "Ġbuilding": 5540,
      "Ġtraining": 5541,
      "ĠAbsolutely": 5542,
      "Ġconnection": 5543,
      "ĠNevertheless": 5544,
      "Ġtaxes": 5545,
      "Ġgradually": 5546,
      "Ġreminded": 5547,
      "Ġpermitted": 5548,
      "Ġinclined": 5549,
      "Ġfavorite": 5550,
      "Ġimmediate": 5551,
      "Ġoccasions": 5552,
      "Ġinfluence": 5553,
      "burgh": 5554,
      "Ġpositively": 5555,
      "Ġlatest": 5556,
      "Ġenjoy": 5557,
      "Ġpushing": 5558,
      "Ġwelshing": 5559,
      "Ġadvancing": 5560,
      "Ġcompetent": 5561,
      "Ġcompetitive": 5562,
      "Ġletterheads": 5563,
      "Ġtechnical": 5564,
      "cientific": 5565,
      "Ġflatly": 5566,
      "ĠAnyhow": 5567,
      "Ġviolently": 5568,
      "Ġutilise": 5569,
      "Ġutilised": 5570,
      "Ġapproach": 5571,
      "Ġacquaintance": 5572,
      "Ġauthorities": 5573,
      "Ġdiagnosed": 5574,
      "Ġdiagnosis": 5575,
      "Going": 5576,
      "share": 5577,
      "Ġastonishing": 5578,
      "Ġastonishment": 5579,
      "Ġmachin": 5580,
      "Ġmachine": 5581,
      "Ġthoroughly": 5582,
      "Ġgovern": 5583,
      "Ġgoverned": 5584,
      "Ġconsolidation": 5585,
      "Ġunreliable": 5586,
      "blooded": 5587,
      "bloodedly": 5588,
      "Ġwealthy": 5589,
      "Ġgrabbed": 5590,
      "ĠGovernor": 5591,
      "ĠGovernment": 5592,
      "cript": 5593,
      "Ġfrequency": 5594,
      "Ġphysician": 5595,
      "Ġpyramiding": 5596,
      "timers": 5597,
      "Ġversa": 5598,
      "Ġachieve": 5599,
      "Ġsonny": 5600,
      "Ġnicest": 5601,
      "Ġlagged": 5602,
      "Ġepisode": 5603,
      "ĠArmour": 5604,
      "Ġintroduced": 5605,
      "Ġquietly": 5606,
      "Ġventures": 5607,
      "Ġgratitude": 5608,
      "Ġimpatient": 5609,
      "Ġstrategy": 5610,
      "Ġconfirmation": 5611,
      "Ġconsistently": 5612,
      "Ġearnestly": 5613,
      "Ġstatistics": 5614,
      "Ġperformances": 5615,
      "Ġirresistible": 5616,
      "Ġfundament": 5617,
      "Ġbeautifully": 5618,
      "Ġaccomplish": 5619,
      "coming": 5620,
      "Ġhammered": 5621,
      "Ġliterature": 5622,
      "iddle": 5623,
      "Ġhearsay": 5624,
      "imistic": 5625,
      "ĠScott": 5626,
      "peculation": 5627,
      "Ġsavings": 5628,
      "Ġextens": 5629,
      "Ġprognosis": 5630,
      "Ġconceal": 5631,
      "Ġaltern": 5632,
      "Ġplaus": 5633,
      "Ġvisit": 5634,
      "Ġprejudices": 5635,
      "ĠUsually": 5636,
      "Ġincredible": 5637,
      "Ġincluding": 5638,
      "Ġenterpr": 5639,
      "Ġcheerfully": 5640,
      "Ġinvolved": 5641,
      "Ġdramatic": 5642,
      "Ġconsummate": 5643,
      "Ġscrap": 5644,
      "Ġpersuasive": 5645,
      "Ġaffairs": 5646,
      "Ġwarmly": 5647,
      "Ġdispassionate": 5648,
      "Ġskilful": 5649,
      "Ġmisgivings": 5650,
      "Ġadversely": 5651,
      "Ġexploit": 5652,
      "Ġtremendous": 5653,
      "Ġmerchandising": 5654,
      "Ġindebtedness": 5655,
      "Ġsympathy": 5656,
      "Ġvendible": 5657,
      "Ġcertificates": 5658,
      "ĠRoberts": 5659,
      "Ġoverwhelming": 5660,
      "basket": 5661,
      "called": 5662,
      "glass": 5663,
      "ublic": 5664,
      "hearted": 5665,
      "Ġwineglass": 5666,
      "Ġsordid": 5667,
      "Ġsneak": 5668,
      "Ġpaused": 5669,
      "Ġdressmaker": 5670,
      "Ġinnocent": 5671,
      "Ġhorses": 5672,
      "Ġstubborn": 5673,
      "ĠToday": 5674,
      "Ġyesterday": 5675,
      "Ġissues": 5676,
      "ĠSmelters": 5677,
      "ĠAltogether": 5678,
      "ĠAddison": 5679,
      "ĠAugust": 5680,
      "ĠHerald": 5681,
      "Ġmanoeuv": 5682,
      "Ġexorbitant": 5683,
      "ĠMissour": 5684,
      "Ġofficially": 5685,
      "adelphia": 5686,
      "Ġunintellig": 5687,
      "Ġunforeseen": 5688,
      "Ġunlimited": 5689,
      "ĠPossibly": 5690,
      "ĠPhiladelphia": 5691,
      "Ġamazing": 5692,
      "ĠLusitania": 5693,
      "ĠFrenchman": 5694,
      "ĠDelaware": 5695,
      "ĠExchanges": 5696,
      "Ġinstrument": 5697,
      "Ġblankety": 5698,
      "Ġenthusi": 5699,
      "Ġdriblets": 5700,
      "Ġconscienceless": 5701,
      "Ġimpending": 5702,
      "Ġinsufficient": 5703,
      "Ġachievement": 5704,
      "\",": 5705,
      "'.": 5706,
      "..": 5707,
      "19": 5708,
      "110": 5709,
      "21": 5710,
      "250": 5711,
      "36": 5712,
      "39": 5713,
      "320": 5714,
      "330": 5715,
      "44": 5716,
      "80": 5717,
      "85": 5718,
      "96": 5719,
      "AR": 5720,
      "After": 5721,
      "Bet": 5722,
      "Billy": 5723,
      "Because": 5724,
      "Cl": 5725,
      "Certainly": 5726,
      "ER": 5727,
      "Ed": 5728,
      "Good": 5729,
      "Kin": 5730,
      "Larry": 5731,
      "ON": 5732,
      "OT": 5733,
      "Prentiss": 5734,
      "Right": 5735,
      "Some": 5736,
      "Shylock": 5737,
      "Tell": 5738,
      "There": 5739,
      "Two": 5740,
      "TON": 5741,
      "aise": 5742,
      "aired": 5743,
      "be": 5744,
      "bre": 5745,
      "bot": 5746,
      "but": 5747,
      "ball": 5748,
      "band": 5749,
      "bies": 5750,
      "bel": 5751,
      "bog": 5752,
      "bring": 5753,
      "bilt": 5754,
      "bulous": 5755,
      "because": 5756,
      "cant": 5757,
      "cause": 5758,
      "city": 5759,
      "cible": 5760,
      "cern": 5761,
      "cons": 5762,
      "de": 5763,
      "dr": 5764,
      "dled": 5765,
      "eat": 5766,
      "eid": 5767,
      "ele": 5768,
      "eur": 5769,
      "epp": 5770,
      "ept": 5771,
      "eown": 5772,
      "eag": 5773,
      "extended": 5774,
      "earned": 5775,
      "fam": 5776,
      "four": 5777,
      "fare": 5778,
      "face": 5779,
      "field": 5780,
      "gs": 5781,
      "gic": 5782,
      "gone": 5783,
      "gence": 5784,
      "gard": 5785,
      "gree": 5786,
      "gth": 5787,
      "gnor": 5788,
      "hot": 5789,
      "hile": 5790,
      "iate": 5791,
      "iated": 5792,
      "ients": 5793,
      "iolog": 5794,
      "lon": 5795,
      "lor": 5796,
      "lif": 5797,
      "list": 5798,
      "lod": 5799,
      "lators": 5800,
      "min": 5801,
      "mit": 5802,
      "mes": 5803,
      "mort": 5804,
      "miss": 5805,
      "mosp": 5806,
      "now": 5807,
      "nuous": 5808,
      "oc": 5809,
      "ov": 5810,
      "oore": 5811,
      "phe": 5812,
      "pha": 5813,
      "put": 5814,
      "pers": 5815,
      "pain": 5816,
      "pered": 5817,
      "pical": 5818,
      "prof": 5819,
      "piece": 5820,
      "rous": 5821,
      "rust": 5822,
      "rint": 5823,
      "rated": 5824,
      "rained": 5825,
      "rier": 5826,
      "rigin": 5827,
      "rons": 5828,
      "rimin": 5829,
      "sure": 5830,
      "six": 5831,
      "sday": 5832,
      "sub": 5833,
      "sburgh": 5834,
      "script": 5835,
      "sband": 5836,
      "tent": 5837,
      "tick": 5838,
      "then": 5839,
      "tener": 5840,
      "tail": 5841,
      "tled": 5842,
      "together": 5843,
      "uated": 5844,
      "upl": 5845,
      "uously": 5846,
      "val": 5847,
      "vish": 5848,
      "we": 5849,
      "ws": 5850,
      "wing": 5851,
      "was": 5852,
      "wal": 5853,
      "wee": 5854,
      "wort": 5855,
      "wind": 5856,
      "who": 5857,
      "while": 5858,
      "xy": 5859,
      "xim": 5860,
      "Ġ9": 5861,
      "Ġing": 5862,
      "Ġ40": 5863,
      "Ġ90": 5864,
      "Ġtid": 5865,
      "Ġtall": 5866,
      "Ġtough": 5867,
      "Ġtast": 5868,
      "Ġtide": 5869,
      "Ġtying": 5870,
      "Ġtacked": 5871,
      "Ġterr": 5872,
      "Ġtune": 5873,
      "het": 5874,
      "Ġaim": 5875,
      "inn": 5876,
      "inen": 5877,
      "inant": 5878,
      "inations": 5879,
      "inently": 5880,
      "inarily": 5881,
      "initely": 5882,
      "Ġwha": 5883,
      "Ġwet": 5884,
      "Ġwag": 5885,
      "Ġwiz": 5886,
      "Ġwaved": 5887,
      "Ġske": 5888,
      "Ġsew": 5889,
      "Ġsought": 5890,
      "Ġsizing": 5891,
      "Ġsister": 5892,
      "Ġmort": 5893,
      "Ġmil": 5894,
      "Ġmood": 5895,
      "Ġmisc": 5896,
      "Ġmob": 5897,
      "Ġmouse": 5898,
      "Ġmult": 5899,
      "Ġmild": 5900,
      "Ġmurd": 5901,
      "Ġmiddle": 5902,
      "hal": 5903,
      "hall": 5904,
      "haust": 5905,
      "hamed": 5906,
      "ren": 5907,
      "rest": 5908,
      "rence": 5909,
      "rete": 5910,
      "repres": 5911,
      "Ġbou": 5912,
      "Ġban": 5913,
      "Ġbore": 5914,
      "Ġband": 5915,
      "Ġbood": 5916,
      "Ġbag": 5917,
      "Ġbody": 5918,
      "Ġbare": 5919,
      "Ġblo": 5920,
      "Ġbless": 5921,
      "Ġbale": 5922,
      "ĠIgnor": 5923,
      "eral": 5924,
      "erred": 5925,
      "erated": 5926,
      "erving": 5927,
      "erbilt": 5928,
      "ounter": 5929,
      "ounced": 5930,
      "oufl": 5931,
      "Ġtobog": 5932,
      "Ġcher": 5933,
      "Ġcop": 5934,
      "Ġcant": 5935,
      "Ġcry": 5936,
      "Ġcage": 5937,
      "Ġcool": 5938,
      "Ġcities": 5939,
      "Ġcream": 5940,
      "Ġcards": 5941,
      "Ġcapt": 5942,
      "Ġcupid": 5943,
      "Ġcables": 5944,
      "iture": 5945,
      "itors": 5946,
      "itici": 5947,
      "itement": 5948,
      "itimate": 5949,
      "oner": 5950,
      "onst": 5951,
      "onse": 5952,
      "oncern": 5953,
      "Ġfal": 5954,
      "Ġfame": 5955,
      "Ġfist": 5956,
      "Ġfount": 5957,
      "Ġfitted": 5958,
      "Ġfresh": 5959,
      "Ġfixt": 5960,
      "Ġoftener": 5961,
      "Ġpot": 5962,
      "Ġpow": 5963,
      "Ġpul": 5964,
      "Ġphen": 5965,
      "Ġpains": 5966,
      "Ġpages": 5967,
      "Ġphr": 5968,
      "Ġponies": 5969,
      "Ġdand": 5970,
      "Ġdate": 5971,
      "Ġdish": 5972,
      "Ġdise": 5973,
      "Ġdiss": 5974,
      "Ġdict": 5975,
      "Ġdrew": 5976,
      "Ġdining": 5977,
      "Ġdimin": 5978,
      "Ġdangers": 5979,
      "Ġdupl": 5980,
      "Ġdwind": 5981,
      "ength": 5982,
      "asant": 5983,
      "ashed": 5984,
      "isk": 5985,
      "isis": 5986,
      "isure": 5987,
      "isement": 5988,
      "islators": 5989,
      "oral": 5990,
      "orand": 5991,
      "orate": 5992,
      "orable": 5993,
      "orace": 5994,
      "eded": 5995,
      "edged": 5996,
      "arled": 5997,
      "arian": 5998,
      "Ġink": 5999,
      "Ġinher": 6000,
      "Ġinqu": 6001,
      "Ġinade": 6002,
      "Ġinverted": 6003,
      "anqu": 6004,
      "anations": 6005,
      "anged": 6006,
      "anning": 6007,
      "Ġwashing": 6008,
      "Ġwasting": 6009,
      "ata": 6010,
      "atious": 6011,
      "atts": 6012,
      "athic": 6013,
      "Ġnon": 6014,
      "Ġnom": 6015,
      "Ġnur": 6016,
      "Ġnick": 6017,
      "Ġhang": 6018,
      "Ġlad": 6019,
      "Ġlob": 6020,
      "Ġlined": 6021,
      "Ġlug": 6022,
      "Ġloose": 6023,
      "Ġlinen": 6024,
      "Ġlength": 6025,
      "Ġgh": 6026,
      "Ġgir": 6027,
      "Ġgull": 6028,
      "Ġgait": 6029,
      "Ġgains": 6030,
      "Ġhind": 6031,
      "Ġhood": 6032,
      "Ġhord": 6033,
      "Ġhorr": 6034,
      "Ġhilt": 6035,
      "Ġhosp": 6036,
      "Ġhonor": 6037,
      "eth": 6038,
      "eted": 6039,
      "etro": 6040,
      "etitions": 6041,
      "ette": 6042,
      "oth": 6043,
      "oted": 6044,
      "otiations": 6045,
      "otball": 6046,
      "iding": 6047,
      "idland": 6048,
      "Ġstar": 6049,
      "Ġstir": 6050,
      "Ġstore": 6051,
      "Ġstation": 6052,
      "Ġstem": 6053,
      "Ġstag": 6054,
      "Ġsteel": 6055,
      "Ġstab": 6056,
      "Ġstress": 6057,
      "Ġstages": 6058,
      "Ġstability": 6059,
      "Ġstaring": 6060,
      "omen": 6061,
      "omatic": 6062,
      "vey": 6063,
      "velo": 6064,
      "ĠTay": 6065,
      "ĠTal": 6066,
      "ĠTues": 6067,
      "ĠTucker": 6068,
      "stock": 6069,
      "story": 6070,
      "stained": 6071,
      "ays": 6072,
      "Ġthin": 6073,
      "ionary": 6074,
      "Ġhence": 6075,
      "ada": 6076,
      "adru": 6077,
      "advant": 6078,
      "adays": 6079,
      "Ġeh": 6080,
      "Ġeast": 6081,
      "Ġeating": 6082,
      "imil": 6083,
      "imated": 6084,
      "imists": 6085,
      "entively": 6086,
      "entatious": 6087,
      "Ġyer": 6088,
      "vert": 6089,
      "Ġmelon": 6090,
      "Ġreb": 6091,
      "Ġresol": 6092,
      "Ġreli": 6093,
      "Ġreferred": 6094,
      "Ġreview": 6095,
      "Ġrelease": 6096,
      "Ġrenew": 6097,
      "Ġforc": 6098,
      "Ġforked": 6099,
      "Ġforces": 6100,
      "Ġproud": 6101,
      "Ġproof": 6102,
      "lex": 6103,
      "lement": 6104,
      "leum": 6105,
      "Ġascrib": 6106,
      "Ġashamed": 6107,
      "Ġnotor": 6108,
      "Ġnotes": 6109,
      "Ġnotep": 6110,
      "Ġnothin": 6111,
      "cel": 6112,
      "ceiving": 6113,
      "ouldn": 6114,
      "Ġbur": 6115,
      "Ġbuck": 6116,
      "Ġbust": 6117,
      "Ġbuilt": 6118,
      "ĠSan": 6119,
      "ĠSher": 6120,
      "ĠSage": 6121,
      "ĠSlo": 6122,
      "ĠSix": 6123,
      "ĠShore": 6124,
      "ĠSounds": 6125,
      "ĠSenator": 6126,
      "ĠSpeculation": 6127,
      "ĠSept": 6128,
      "ĠSpain": 6129,
      "ctions": 6130,
      "Ġring": 6131,
      "Ġrock": 6132,
      "Ġrain": 6133,
      "Ġrout": 6134,
      "Ġrag": 6135,
      "Ġrap": 6136,
      "Ġrates": 6137,
      "Ġrub": 6138,
      "Ġrotten": 6139,
      "Ġringer": 6140,
      "Ġdoped": 6141,
      "Ġtru": 6142,
      "Ġtries": 6143,
      "Ġtrap": 6144,
      "Ġtrail": 6145,
      "Ġtrump": 6146,
      "Ġtraced": 6147,
      "Ġtranqu": 6148,
      "Ġorator": 6149,
      "Ġate": 6150,
      "Ġatmosp": 6151,
      "amb": 6152,
      "aming": 6153,
      "amity": 6154,
      "ĠWater": 6155,
      "ĠWatts": 6156,
      "Ġmarketability": 6157,
      "ĠBad": 6158,
      "ĠBry": 6159,
      "ĠBurn": 6160,
      "ĠBern": 6161,
      "ĠBesides": 6162,
      "ĠBoth": 6163,
      "erer": 6164,
      "erence": 6165,
      "irty": 6166,
      "ircumstances": 6167,
      "ĠAd": 6168,
      "ĠAp": 6169,
      "ĠAre": 6170,
      "ĠAfr": 6171,
      "allel": 6172,
      "pel": 6173,
      "peakable": 6174,
      "Ġwhine": 6175,
      "Ġwhined": 6176,
      "ulting": 6177,
      "ulner": 6178,
      "Ġkiting": 6179,
      "oos": 6180,
      "essions": 6181,
      "hery": 6182,
      "ĠHad": 6183,
      "ĠHill": 6184,
      "ĠHol": 6185,
      "ĠHouse": 6186,
      "Ġneck": 6187,
      "Ġnephe": 6188,
      "ĠStud": 6189,
      "perative": 6190,
      "Ġalleg": 6191,
      "Ġalliance": 6192,
      "Ġsued": 6193,
      "Ġsubl": 6194,
      "Ġsubt": 6195,
      "Ġsustained": 6196,
      "Ġdegree": 6197,
      "Ġshout": 6198,
      "Ġshrie": 6199,
      "Ġsable": 6200,
      "Ġsacred": 6201,
      "Ġknock": 6202,
      "Ġfrown": 6203,
      "igging": 6204,
      "igencies": 6205,
      "igested": 6206,
      "Ġmanners": 6207,
      "Ġmaneu": 6208,
      "osop": 6209,
      "ights": 6210,
      "aints": 6211,
      "oportion": 6212,
      "opathic": 6213,
      "anderbilt": 6214,
      "Ġexist": 6215,
      "Ġexhaust": 6216,
      "Ġexigencies": 6217,
      "ursday": 6218,
      "Ġoutcome": 6219,
      "Ġoutstanding": 6220,
      "ĠOther": 6221,
      "ĠOli": 6222,
      "ĠOrigin": 6223,
      "Ġproving": 6224,
      "Ġprocl": 6225,
      "outs": 6226,
      "ipation": 6227,
      "Ġtimed": 6228,
      "ems": 6229,
      "empl": 6230,
      "Ġabuses": 6231,
      "quarters": 6232,
      "ourable": 6233,
      "Ġgod": 6234,
      "Ġconsequ": 6235,
      "antam": 6236,
      "Ġaloud": 6237,
      "Ġaltogether": 6238,
      "ilar": 6239,
      "ilising": 6240,
      "rolled": 6241,
      "robor": 6242,
      "ĠMen": 6243,
      "ĠMars": 6244,
      "ĠMike": 6245,
      "ĠMidland": 6246,
      "Ġhusband": 6247,
      "Ġshaken": 6248,
      "Ġtimeliness": 6249,
      "Ġoffset": 6250,
      "Ġplug": 6251,
      "Ġwholes": 6252,
      "ests": 6253,
      "Ġcoord": 6254,
      "istent": 6255,
      "istically": 6256,
      "ardon": 6257,
      "aud": 6258,
      "ĠNass": 6259,
      "ĠNorth": 6260,
      "oderate": 6261,
      "ĠRus": 6262,
      "ĠRailroad": 6263,
      "ĠReid": 6264,
      "Ġunth": 6265,
      "Ġunple": 6266,
      "Ġunne": 6267,
      "Ġunlike": 6268,
      "Ġunanim": 6269,
      "Ġunearned": 6270,
      "ĠPitt": 6271,
      "ĠPhip": 6272,
      "ĠPetro": 6273,
      "Ġleading": 6274,
      "Ġleisure": 6275,
      "blance": 6276,
      "interest": 6277,
      "Ġintents": 6278,
      "Ġaren": 6279,
      "Ġpoise": 6280,
      "Ġpoison": 6281,
      "ung": 6282,
      "unte": 6283,
      "Ġqual": 6284,
      "Ġquarters": 6285,
      "Ġquadru": 6286,
      "ĠCle": 6287,
      "ĠCare": 6288,
      "ĠChar": 6289,
      "ĠChin": 6290,
      "ĠClim": 6291,
      "ĠClif": 6292,
      "ĠCircumstances": 6293,
      "ickson": 6294,
      "Ġjail": 6295,
      "Ġjoint": 6296,
      "Ġjacked": 6297,
      "Ġjigger": 6298,
      "Ġvig": 6299,
      "Ġvivid": 6300,
      "Ġvulner": 6301,
      "Ġagencies": 6302,
      "Ġsea": 6303,
      "Ġsear": 6304,
      "Ġseize": 6305,
      "Ġsevere": 6306,
      "Ġsepar": 6307,
      "Ġsections": 6308,
      "ossible": 6309,
      "Ġrights": 6310,
      "Ġenvelop": 6311,
      "Ġenfor": 6312,
      "Ġenables": 6313,
      "Ġenvelo": 6314,
      "Ġprofiting": 6315,
      "Ġprofited": 6316,
      "Ġthinker": 6317,
      "Ġthinkers": 6318,
      "agement": 6319,
      "Ġshortly": 6320,
      "Ġbulling": 6321,
      "Ġpointing": 6322,
      "Ġspecifically": 6323,
      "asted": 6324,
      "acular": 6325,
      "aches": 6326,
      "Ġclip": 6327,
      "Ġclicking": 6328,
      "veni": 6329,
      "Ġaccus": 6330,
      "aps": 6331,
      "apse": 6332,
      "apable": 6333,
      "apons": 6334,
      "Ġoverst": 6335,
      "Ġoverco": 6336,
      "Ġoversight": 6337,
      "Ġliver": 6338,
      "Ġlibr": 6339,
      "Ġtipping": 6340,
      "ĠLake": 6341,
      "ĠLook": 6342,
      "umn": 6343,
      "umably": 6344,
      "Ġdecency": 6345,
      "Ġpublication": 6346,
      "ush": 6347,
      "usions": 6348,
      "ĠJer": 6349,
      "ĠFort": 6350,
      "ĠFair": 6351,
      "ĠFear": 6352,
      "ĠFeb": 6353,
      "ĠFisk": 6354,
      "ĠFanning": 6355,
      "Ġfabulous": 6356,
      "ankerous": 6357,
      "Ġadvis": 6358,
      "Ġadvise": 6359,
      "Ġowning": 6360,
      "Ġgrump": 6361,
      "Ġgrudge": 6362,
      "Ġputs": 6363,
      "Ġhasn": 6364,
      "Ġordinary": 6365,
      "Ġordinarily": 6366,
      "ĠGrid": 6367,
      "ĠDe": 6368,
      "ĠDis": 6369,
      "ĠDog": 6370,
      "ĠDickson": 6371,
      "ĠInside": 6372,
      "ĠInvest": 6373,
      "Ġcommand": 6374,
      "Ġcommunity": 6375,
      "Ġparties": 6376,
      "Ġpartial": 6377,
      "Ġremed": 6378,
      "hedule": 6379,
      "ounted": 6380,
      "Ġcrum": 6381,
      "Ġcried": 6382,
      "Ġcrime": 6383,
      "Ġcraving": 6384,
      "Ġcruised": 6385,
      "Ġcronies": 6386,
      "Ġcruise": 6387,
      "Ġcrisis": 6388,
      "Ġnowadays": 6389,
      "reeable": 6390,
      "Ġcomposed": 6391,
      "Ġcomparing": 6392,
      "Ġhole": 6393,
      "ĠThree": 6394,
      "ĠThirty": 6395,
      "ĠThursday": 6396,
      "Ġboiled": 6397,
      "Ġmanipulative": 6398,
      "Ġjustice": 6399,
      "Ġjustify": 6400,
      "three": 6401,
      "thday": 6402,
      "Ġbrand": 6403,
      "Ġbraver": 6404,
      "Ġcertainties": 6405,
      "Ġtalent": 6406,
      "Ġreader": 6407,
      "ected": 6408,
      "arest": 6409,
      "Ġpayer": 6410,
      "Ġpayment": 6411,
      "Ġinstall": 6412,
      "Ġinstances": 6413,
      "Ġinstruct": 6414,
      "Ġevening": 6415,
      "Ġcashing": 6416,
      "anced": 6417,
      "ancisco": 6418,
      "Ġ11": 6419,
      "Ġmostly": 6420,
      "Ġimpass": 6421,
      "Ġimportun": 6422,
      "Ġimplied": 6423,
      "Ġimpaired": 6424,
      "Ġimpossible": 6425,
      "Ġbelonged": 6426,
      "Ġspur": 6427,
      "Ġspare": 6428,
      "Ġspace": 6429,
      "Ġspread": 6430,
      "Ġspurred": 6431,
      "Ġsprint": 6432,
      "Ġreporter": 6433,
      "Ġrepetitions": 6434,
      "Ġblow": 6435,
      "Ġblaming": 6436,
      "Ġsupplied": 6437,
      "Ġsupplies": 6438,
      "ilege": 6439,
      "ĠKeown": 6440,
      "Ġbreed": 6441,
      "Ġbread": 6442,
      "Ġbreach": 6443,
      "aborate": 6444,
      "abouts": 6445,
      "Ġremembers": 6446,
      "manipulation": 6447,
      "Ġdispr": 6448,
      "Ġdisaster": 6449,
      "Ġdislod": 6450,
      "Ġdisadvant": 6451,
      "Ġdisinterest": 6452,
      "place": 6453,
      "Ġindis": 6454,
      "Ġindec": 6455,
      "Ġindef": 6456,
      "Ġinduced": 6457,
      "Ġindignant": 6458,
      "Ġorderly": 6459,
      "Ġdiffered": 6460,
      "Ġbeginner": 6461,
      "Ġbeginnings": 6462,
      "Ġsuccession": 6463,
      "Ġtickled": 6464,
      "Ġcontend": 6465,
      "Ġsmack": 6466,
      "Ġsmart": 6467,
      "Ġsmacked": 6468,
      "Ġsmiled": 6469,
      "Ġcleared": 6470,
      "Ġclevere": 6471,
      "Ġincidents": 6472,
      "Ġconcrete": 6473,
      "Ġenters": 6474,
      "Ġhandy": 6475,
      "Ġhandling": 6476,
      "Ġteles": 6477,
      "Ġpresents": 6478,
      "Ġpressed": 6479,
      "Ġpresidents": 6480,
      "Ġpresumably": 6481,
      "Ġpooled": 6482,
      "Ġrealize": 6483,
      "Ġrealized": 6484,
      "Ġrealizing": 6485,
      "Ġsworn": 6486,
      "Ġswapp": 6487,
      "Ġstri": 6488,
      "Ġstrut": 6489,
      "Ġstraw": 6490,
      "Ġuntried": 6491,
      "Ġfinds": 6492,
      "Ġfounded": 6493,
      "Ġloves": 6494,
      "Ġrecent": 6495,
      "Ġrecip": 6496,
      "Ġrecoll": 6497,
      "Ġrecipe": 6498,
      "Ġbothered": 6499,
      "Ġinvited": 6500,
      "Ġinvented": 6501,
      "Ġended": 6502,
      "Ġmeanwhile": 6503,
      "Ġquoting": 6504,
      "Ġbelieving": 6505,
      "Ġ1900": 6506,
      "Ġhelps": 6507,
      "Ġhelping": 6508,
      "awrence": 6509,
      "Ġfriendship": 6510,
      "Ġshowing": 6511,
      "Ġconfession": 6512,
      "Ġconfined": 6513,
      "Ġdriving": 6514,
      "Ġdrives": 6515,
      "Ġinfinitely": 6516,
      "Ġelaborate": 6517,
      "ressed": 6518,
      "Ġslower": 6519,
      "Ġmistaken": 6520,
      "icted": 6521,
      "Ġquickest": 6522,
      "Ġconsented": 6523,
      "Ġconscient": 6524,
      "Ġconscious": 6525,
      "Ġbullishly": 6526,
      "Ġfaring": 6527,
      "Ġstrongest": 6528,
      "ĠTrader": 6529,
      "Ġexpectation": 6530,
      "Ġaveraged": 6531,
      "Ġlessons": 6532,
      "Ġattempt": 6533,
      "Ġattentively": 6534,
      "Ġdifferences": 6535,
      "Ġloser": 6536,
      "Ġheadl": 6537,
      "Ġasses": 6538,
      "Ġassist": 6539,
      "Ġassure": 6540,
      "Ġassistance": 6541,
      "Ġassumed": 6542,
      "Ġassurance": 6543,
      "raction": 6544,
      "Ġcarri": 6545,
      "Ġcargo": 6546,
      "Ġscal": 6547,
      "Ġscattered": 6548,
      "Ġschedule": 6549,
      "Ġdetect": 6550,
      "Ġmemorand": 6551,
      "Ġexcitement": 6552,
      "elong": 6553,
      "Ġwishful": 6554,
      "Ġimperative": 6555,
      "Ġminim": 6556,
      "Ġminus": 6557,
      "Ġminority": 6558,
      "ĠBeing": 6559,
      "ĠBecause": 6560,
      "Ġsheets": 6561,
      "Ġinsure": 6562,
      "Ġinsane": 6563,
      "Ġevidence": 6564,
      "Ġdemonst": 6565,
      "Ġdemoral": 6566,
      "Ġhopeless": 6567,
      "Ġanswers": 6568,
      "Ġsigns": 6569,
      "Ġsignature": 6570,
      "Ġharassed": 6571,
      "Ġsafer": 6572,
      "Ġfinancier": 6573,
      "Ġfinanciers": 6574,
      "Ġsenior": 6575,
      "Ġdefy": 6576,
      "Ġdefense": 6577,
      "crow": 6578,
      "Ġchron": 6579,
      "ĠAllied": 6580,
      "Ġvaried": 6581,
      "except": 6582,
      "Ġdiscom": 6583,
      "Ġbehave": 6584,
      "Ġbehalf": 6585,
      "Ġbehaving": 6586,
      "Ġuseful": 6587,
      "Ġproperties": 6588,
      "Ġinvestig": 6589,
      "Ġdemanded": 6590,
      "Ġsentiment": 6591,
      "Ġcoun": 6592,
      "Ġinformed": 6593,
      "Ġcapitalising": 6594,
      "Ġcapitalists": 6595,
      "Ġcapitalizing": 6596,
      "Ġcapitalization": 6597,
      "Ġaffili": 6598,
      "Ġpolite": 6599,
      "Ġpolished": 6600,
      "Ġpolitical": 6601,
      "Ġpolitici": 6602,
      "Ġfails": 6603,
      "Ġpromotion": 6604,
      "Ġdispatch": 6605,
      "Ġglance": 6606,
      "Ġglanced": 6607,
      "Ġgames": 6608,
      "Ġamounts": 6609,
      "Ġamounting": 6610,
      "Ġlimits": 6611,
      "Ġauthent": 6612,
      "Ġwriting": 6613,
      "Ġwriter": 6614,
      "Ġbookkeep": 6615,
      "Ġpatrons": 6616,
      "iciency": 6617,
      "Ġpropitious": 6618,
      "Ġproportion": 6619,
      "Ġdevelops": 6620,
      "Ġdeveloping": 6621,
      "Ġexcepting": 6622,
      "Ġexceptions": 6623,
      "ĠJimmy": 6624,
      "Ġaccepting": 6625,
      "Ġwondering": 6626,
      "102": 6627,
      "105": 6628,
      "108": 6629,
      "azil": 6630,
      "Ġ20": 6631,
      "Ġ24": 6632,
      "pendent": 6633,
      "Ġsufficiently": 6634,
      "Ġchecks": 6635,
      "Ġcreditor": 6636,
      "Nobody": 6637,
      "Ġheavier": 6638,
      "Ġexpense": 6639,
      "Ġpurchased": 6640,
      "Ġincreases": 6641,
      "Ġaccumulating": 6642,
      "Ġefficient": 6643,
      "Ġredress": 6644,
      "Ġreducing": 6645,
      "Ġreceip": 6646,
      "Ġreceiver": 6647,
      "ĠBrazil": 6648,
      "Ġdevised": 6649,
      "Ġdevote": 6650,
      "Ġdevoted": 6651,
      "Ġalongside": 6652,
      "Ġjudicious": 6653,
      "Ġspecialist": 6654,
      "Ġreactionary": 6655,
      "Ġappr": 6656,
      "Ġsque": 6657,
      "Ġbounds": 6658,
      "Ġclient": 6659,
      "Ġgroups": 6660,
      "Ġfearless": 6661,
      "Ġapart": 6662,
      "Ġskunk": 6663,
      "Ġsetback": 6664,
      "Ġsettle": 6665,
      "Ġmisrepres": 6666,
      "Ġforemost": 6667,
      "Ġforecast": 6668,
      "ĠAlways": 6669,
      "ĠFrick": 6670,
      "ĠFriend": 6671,
      "ĠFrancisco": 6672,
      "Ġcommonest": 6673,
      "Ġcommonplace": 6674,
      "Ġreported": 6675,
      "Ġsupporting": 6676,
      "Ġsupported": 6677,
      "Ġharder": 6678,
      "ĠJohnny": 6679,
      "Ġwarned": 6680,
      "Ġcorpor": 6681,
      "Ġcorporation": 6682,
      "Ġcorrobor": 6683,
      "Ġdistrict": 6684,
      "ensions": 6685,
      "Ġhurts": 6686,
      "Ġhurried": 6687,
      "Ġabsurd": 6688,
      "Ġlegislators": 6689,
      "Ġswinging": 6690,
      "Ġfluctuated": 6691,
      "Ġdetermining": 6692,
      "Ġgambled": 6693,
      "headed": 6694,
      "Ġwiser": 6695,
      "Ġwisest": 6696,
      "Ġcurves": 6697,
      "Ġfooled": 6698,
      "Ġparallel": 6699,
      "Ġeminently": 6700,
      "Ġsubscrib": 6701,
      "Ġsubcons": 6702,
      "Ġcrossing": 6703,
      "ruary": 6704,
      "Ġoriginally": 6705,
      "Ġresults": 6706,
      "Ġresulted": 6707,
      "Ġreputed": 6708,
      "Ġsupplying": 6709,
      "Ġillustr": 6710,
      "Ġillusions": 6711,
      "Ġpockets": 6712,
      "Ġinterrupt": 6713,
      "Ġstands": 6714,
      "Ġrefusing": 6715,
      "Ġurging": 6716,
      "Ġrisen": 6717,
      "Ġuncertain": 6718,
      "Ġunconcern": 6719,
      "Ġimportations": 6720,
      "Ġunderstanding": 6721,
      "Ġbehavior": 6722,
      "Ġappeared": 6723,
      "Ġlowest": 6724,
      "Ġcomplaints": 6725,
      "Ġimagin": 6726,
      "Ġimagined": 6727,
      "upon": 6728,
      "Ġsteadfast": 6729,
      "Ġequival": 6730,
      "Ġequipped": 6731,
      "Ġtruthfully": 6732,
      "Ġadmir": 6733,
      "Ġadmire": 6734,
      "Ġadmitted": 6735,
      "Ġspeaker": 6736,
      "Ġlogic": 6737,
      "Ġimmense": 6738,
      "Ġimmune": 6739,
      "Ġsqueezing": 6740,
      "Ġcontinues": 6741,
      "Ġcontinuously": 6742,
      "Ġadvertised": 6743,
      "Ġadvertisement": 6744,
      "Ġoblige": 6745,
      "Ġestimate": 6746,
      "Ġpicking": 6747,
      "Ġraided": 6748,
      "Ġtrustwort": 6749,
      "Ġdelivery": 6750,
      "Ġguessed": 6751,
      "Ġguesses": 6752,
      "Ġfavours": 6753,
      "Ġanticipated": 6754,
      "ney": 6755,
      "Ġmerchan": 6756,
      "Ġmercant": 6757,
      "Ġfeebler": 6758,
      "Ġpunishing": 6759,
      "Ġhomeopathic": 6760,
      "Ġrelap": 6761,
      "Ġrelative": 6762,
      "Ġrelished": 6763,
      "Ġrelief": 6764,
      "Ġrollers": 6765,
      "Ġdozens": 6766,
      "Ġsolved": 6767,
      "Ġsolvency": 6768,
      "Ġcollection": 6769,
      "Ġcolleag": 6770,
      "Ġcollapse": 6771,
      "Ġadvantages": 6772,
      "Ġarrive": 6773,
      "Ġspotted": 6774,
      "Ġconfidently": 6775,
      "Ġconfidentially": 6776,
      "Ġrecklessness": 6777,
      "Ġunexpectedly": 6778,
      "Ġassociate": 6779,
      "Ġassociated": 6780,
      "They": 6781,
      "ributed": 6782,
      "Ġhated": 6783,
      "Ġirr": 6784,
      "Ġiras": 6785,
      "Ġsalt": 6786,
      "Ġinevitably": 6787,
      "Ġgossips": 6788,
      "Ġshoe": 6789,
      "Ġshoot": 6790,
      "Ġshoved": 6791,
      "Ġprovisions": 6792,
      "ĠMarch": 6793,
      "Ġprotection": 6794,
      "Ġoccur": 6795,
      "Ġmoving": 6796,
      "regate": 6797,
      "Ġphilosop": 6798,
      "isms": 6799,
      "Ġlaws": 6800,
      "Ġsteps": 6801,
      "Ġfortunes": 6802,
      "Ġfortunate": 6803,
      "Ġprivilege": 6804,
      "Ġanxiously": 6805,
      "Ġhungry": 6806,
      "Ġcolour": 6807,
      "Ġcolumn": 6808,
      "Ġunsigned": 6809,
      "Ġunscientific": 6810,
      "Ġunspeakable": 6811,
      "Ġdoubtful": 6812,
      "Ġdoubtless": 6813,
      "ĠVanderbilt": 6814,
      "Ġignored": 6815,
      "Ġmaxim": 6816,
      "Ġcamoufl": 6817,
      "Ġprevails": 6818,
      "Ġliquidation": 6819,
      "Ġpressing": 6820,
      "Ġbeliefs": 6821,
      "Ġdrawn": 6822,
      "Ġdrawing": 6823,
      "Ġborrowers": 6824,
      "Ġbenefited": 6825,
      "Ġbenefici": 6826,
      "149": 6827,
      "Ġescrow": 6828,
      "Ġideal": 6829,
      "Ġtypical": 6830,
      "Ġtactical": 6831,
      "Ġsemblance": 6832,
      "Ġsilent": 6833,
      "Ġbillions": 6834,
      "Ġcauses": 6835,
      "Ġcausing": 6836,
      "Ġcatching": 6837,
      "Ġhesitation": 6838,
      "Ġhesitated": 6839,
      "Ġmystery": 6840,
      "lected": 6841,
      "lection": 6842,
      "ĠHarrim": 6843,
      "Ġsumpt": 6844,
      "Ġunfailing": 6845,
      "Ġsporty": 6846,
      "Ġregardless": 6847,
      "Ġaffecting": 6848,
      "Ġsuspicion": 6849,
      "Ġsuspiciously": 6850,
      "Ġdistribut": 6851,
      "Ġdistribution": 6852,
      "Ġriskless": 6853,
      "Ġexpressing": 6854,
      "Ġsalesmanship": 6855,
      "Ġphilanthropists": 6856,
      "255": 6857,
      "Isn": 6858,
      "Ġsnapped": 6859,
      "Ġsnarled": 6860,
      "Ġmagnetic": 6861,
      "Ġcalamity": 6862,
      "encing": 6863,
      "Ġstrenuous": 6864,
      "Ġyoungster": 6865,
      "Ġgolden": 6866,
      "ĠMcKin": 6867,
      "Ġagreeable": 6868,
      "Ġselfish": 6869,
      "ĠJosh": 6870,
      "arers": 6871,
      "Ġpatient": 6872,
      "Ġpatiently": 6873,
      "Ġexceptionally": 6874,
      "Ġannounced": 6875,
      "Ġautomobiles": 6876,
      "Ġcorrectness": 6877,
      "brow": 6878,
      "bride": 6879,
      "eyed": 6880,
      "iety": 6881,
      "Ġmorally": 6882,
      "Ġcocky": 6883,
      "Ġcocksure": 6884,
      "Ġcocktail": 6885,
      "Ġnerves": 6886,
      "ĠAmong": 6887,
      "Ġcombinations": 6888,
      "Ġworrying": 6889,
      "Ġvolunte": 6890,
      "Ġtaxing": 6891,
      "Ġgraduated": 6892,
      "Ġperiodically": 6893,
      "Ġrespond": 6894,
      "Ġinclude": 6895,
      "Ġinclination": 6896,
      "Ġdescribe": 6897,
      "Ġregretted": 6898,
      "Ġregrettable": 6899,
      "Ġconvinces": 6900,
      "Ġpolicies": 6901,
      "Ġsurprise": 6902,
      "Ġurgently": 6903,
      "hundreds": 6904,
      "Ġestablish": 6905,
      "Ġnumberless": 6906,
      "Ġengineer": 6907,
      "Ġengineers": 6908,
      "Ġengineered": 6909,
      "Ġinfluenced": 6910,
      "Ġinfluencing": 6911,
      "Ġgentlemen": 6912,
      "Mrs": 6913,
      "Ġtouted": 6914,
      "Ġreverses": 6915,
      "ĠWalter": 6916,
      "Ġdelay": 6917,
      "Ġdelighted": 6918,
      "Ġshots": 6919,
      "urbed": 6920,
      "ustries": 6921,
      "ustrial": 6922,
      "Ġjoy": 6923,
      "Ġaggregate": 6924,
      "Ġpushed": 6925,
      "Ġprepare": 6926,
      "Ġprepared": 6927,
      "Ġwelsh": 6928,
      "Ġwelsher": 6929,
      "Ġcommercially": 6930,
      "ĠThinking": 6931,
      "Ġrepresents": 6932,
      "Ġinducement": 6933,
      "Ġtechni": 6934,
      "Ġtechnically": 6935,
      "Ġpossesses": 6936,
      "Ġviolating": 6937,
      "Ġapproached": 6938,
      "Ġmodestly": 6939,
      "ĠBoardwal": 6940,
      "Ġstrengthen": 6941,
      "ĠBlackwood": 6942,
      "Ġeagerly": 6943,
      "eighths": 6944,
      "official": 6945,
      "Ġverge": 6946,
      "Ġverifying": 6947,
      "informed": 6948,
      "Ġbothering": 6949,
      "ĠIndustries": 6950,
      "Ġtowns": 6951,
      "Ġpainted": 6952,
      "Ġdestin": 6953,
      "Ġdestruct": 6954,
      "Ġhaste": 6955,
      "Ġhastily": 6956,
      "Ġrigged": 6957,
      "Ġrigging": 6958,
      "Ġcomfortably": 6959,
      "Ġconsolidations": 6960,
      "Ġsomewhat": 6961,
      "Ġunreasonable": 6962,
      "Ġgrandeur": 6963,
      "ĠGetting": 6964,
      "Ġpermanent": 6965,
      "Ġpermanence": 6966,
      "Ġartistically": 6967,
      "Ġfeeding": 6968,
      "Ġconducted": 6969,
      "Ġundoubted": 6970,
      "Ġindependent": 6971,
      "Ġsympt": 6972,
      "Ġguys": 6973,
      "Ġattacks": 6974,
      "Ġattractive": 6975,
      "Ġasserting": 6976,
      "Ġasserted": 6977,
      "Ġpersistent": 6978,
      "Ġpersistence": 6979,
      "Ġroads": 6980,
      "crippled": 6981,
      "crossing": 6982,
      "Ġpoliceman": 6983,
      "Ġtemperature": 6984,
      "Ġargued": 6985,
      "Ġarguments": 6986,
      "Ġreflected": 6987,
      "Ġreflection": 6988,
      "Ġcalculations": 6989,
      "Ġfrequent": 6990,
      "Ġextravagance": 6991,
      "Ġphysiolog": 6992,
      "eball": 6993,
      "Ġversion": 6994,
      "Ġtreated": 6995,
      "Ġtreatment": 6996,
      "Ġachieved": 6997,
      "Ġwithal": 6998,
      "Ġmiracles": 6999,
      "Ġmiracle": 7000,
      "Ġmissing": 7001,
      "Ġfootball": 7002,
      "Ġfleet": 7003,
      "Ġpeeved": 7004,
      "Ġpeevish": 7005,
      "Ġnicer": 7006,
      "Ġlifelong": 7007,
      "selling": 7008,
      "Ġmeasure": 7009,
      "Ġforthcoming": 7010,
      "Ġyouthful": 7011,
      "ĠSeeing": 7012,
      "ĠBucket": 7013,
      "ĠBuying": 7014,
      "Ġdebut": 7015,
      "iveness": 7016,
      "Ġventure": 7017,
      "Ġclamorous": 7018,
      "Ġ1896": 7019,
      "Ġimpatience": 7020,
      "Ġsportsmanship": 7021,
      "Ġdisgust": 7022,
      "Ġdisguised": 7023,
      "Ġteaching": 7024,
      "Ġstrategic": 7025,
      "Ġconsisting": 7026,
      "Ġstatistical": 7027,
      "Ġcurrents": 7028,
      "Ġdepartments": 7029,
      "Ġirrespective": 7030,
      "Ġfundamental": 7031,
      "Ġbeautiful": 7032,
      "Ġconstitute": 7033,
      "Ġaccomplished": 7034,
      "Ġdisregarded": 7035,
      "Ġoccasional": 7036,
      "Ġdisappointed": 7037,
      "Ġdisappointment": 7038,
      "ĠSaturdays": 7039,
      "292": 7040,
      "296": 7041,
      "Ġidentify": 7042,
      "Ġsimilar": 7043,
      "Ġcoppering": 7044,
      "Ġfilled": 7045,
      "Ġfurnish": 7046,
      "Ġfurniture": 7047,
      "Ġpiking": 7048,
      "Ġpioneer": 7049,
      "Ġpioneers": 7050,
      "Ġpopular": 7051,
      "Ġderived": 7052,
      "Ġderby": 7053,
      "Ġdenied": 7054,
      "Ġdeductions": 7055,
      "Ġbeware": 7056,
      "Ġlacking": 7057,
      "Ġguns": 7058,
      "Ġhints": 7059,
      "Ġhinted": 7060,
      "Ġhonesty": 7061,
      "Ġstung": 7062,
      "Ġthreats": 7063,
      "Ġyarns": 7064,
      "Ġprimary": 7065,
      "Ġprimarily": 7066,
      "ĠBaruch": 7067,
      "ĠBrokerage": 7068,
      "Ġnegotiations": 7069,
      "Ġneglected": 7070,
      "Ġdeemed": 7071,
      "Ġshovel": 7072,
      "Ġsagging": 7073,
      "ĠObserve": 7074,
      "ĠYears": 7075,
      "Ġpostal": 7076,
      "Ġadherence": 7077,
      "Ġadapted": 7078,
      "ĠCongressmen": 7079,
      "Ġvitiated": 7080,
      "Ġvictim": 7081,
      "Ġvictory": 7082,
      "Ġvindictively": 7083,
      "Ġpuzzle": 7084,
      "Ġcloser": 7085,
      "Ġclosest": 7086,
      "Ġpreliminary": 7087,
      "Ġpreliminaries": 7088,
      "Ġhoggish": 7089,
      "Ġhoggishness": 7090,
      "Ġboldest": 7091,
      "Ġboasting": 7092,
      "Ġmaterial": 7093,
      "Ġimproper": 7094,
      "Ġimproved": 7095,
      "Ġspells": 7096,
      "Ġdisappear": 7097,
      "Ġdisappeared": 7098,
      "Ġentrance": 7099,
      "Ġrecognise": 7100,
      "Ġrecognition": 7101,
      "Ġdesperate": 7102,
      "Ġdesperately": 7103,
      "Ġflooded": 7104,
      "Ġillegal": 7105,
      "Ġillegitimate": 7106,
      "Ġappearances": 7107,
      "Ġemphasise": 7108,
      "Ġbattlefield": 7109,
      "Ġinexperience": 7110,
      "Ġinexperienced": 7111,
      "Ġperplexity": 7112,
      "Ġmisunderstand": 7113,
      "Ġmisunderstood": 7114,
      "About": 7115,
      "brokerage": 7116,
      "fifty": 7117,
      "spot": 7118,
      "Ġidle": 7119,
      "Ġessential": 7120,
      "Ġtumbled": 7121,
      "insiders": 7122,
      "Ġoverextended": 7123,
      "Ġsidest": 7124,
      "Ġmasterpiece": 7125,
      "Ġbird": 7126,
      "Ġcarto": 7127,
      "Ġpads": 7128,
      "Ġpessimistic": 7129,
      "Ġdominant": 7130,
      "Ġnarrow": 7131,
      "Ġhanker": 7132,
      "Ġlabours": 7133,
      "Ġgift": 7134,
      "Ġstuffing": 7135,
      "Ġthimble": 7136,
      "second": 7137,
      "Ġhealthy": 7138,
      "Ġmegaphone": 7139,
      "Ġascertain": 7140,
      "ĠShops": 7141,
      "Ġramp": 7142,
      "Ġracing": 7143,
      "ĠAgainst": 7144,
      "Ġdeprive": 7145,
      "Ġdelusion": 7146,
      "Ġsacrifice": 7147,
      "Ġexcesses": 7148,
      "Ġexceeded": 7149,
      "Ġcontingent": 7150,
      "Ġalarming": 7151,
      "Ġcoincidence": 7152,
      "ĠRepublic": 7153,
      "Ġunwilling": 7154,
      "Ġspectacles": 7155,
      "ĠCanada": 7156,
      "Ġjacking": 7157,
      "Ġjags": 7158,
      "Ġclimbing": 7159,
      "Ġclaimed": 7160,
      "Ġwelcome": 7161,
      "Ġdecreasing": 7162,
      "Ġgrievance": 7163,
      "Ġremarked": 7164,
      "Ġspirit": 7165,
      "Ġsponsors": 7166,
      "Ġundisturbed": 7167,
      "Ġdisagreeable": 7168,
      "Ġlocal": 7169,
      "Ġrecommended": 7170,
      "Ġpursuits": 7171,
      "Ġassuming": 7172,
      "explanations": 7173,
      "Ġretorted": 7174,
      "Ġobscurity": 7175,
      "Ġapparently": 7176,
      "Ġgrouchy": 7177,
      "Ġmoderation": 7178,
      "Ġcorrespondents": 7179,
      "Ġdistinctly": 7180,
      "Ġsubjects": 7181,
      "Ġsubmarines": 7182,
      "Ġsurmises": 7183,
      "Ġillogical": 7184,
      "Ġhistoric": 7185,
      "Ġemphatically": 7186,
      "Ġlegitimately": 7187,
      "Ġescape": 7188,
      "Ġunprofitable": 7189,
      "Ġapproaching": 7190,
      "Ġmachinery": 7191,
      "Ġgovernors": 7192,
      "Ġfundamentals": 7193,
      "Ġextensively": 7194,
      "Ġconcealing": 7195,
      "Ġalternative": 7196,
      "Ġplausibility": 7197,
      "Ġenterprises": 7198,
      "ĠMissouri": 7199,
      "Ġunintelligently": 7200,
      "Ġenthusiastic": 7201,
      "...\"": 7202,
      "bringer": 7203,
      "famous": 7204,
      "mortems": 7205,
      "profit": 7206,
      "scription": 7207,
      "week": 7208,
      "Ġtidings": 7209,
      "Ġwhack": 7210,
      "Ġwagon": 7211,
      "Ġwizard": 7212,
      "Ġskept": 7213,
      "Ġsewed": 7214,
      "Ġmilking": 7215,
      "Ġmultip": 7216,
      "Ġmildly": 7217,
      "Ġbanked": 7218,
      "Ġbarely": 7219,
      "Ġbloom": 7220,
      "Ġblessed": 7221,
      "ĠIgnorance": 7222,
      "Ġtoboggan": 7223,
      "Ġcherish": 7224,
      "Ġcantankerous": 7225,
      "Ġcooled": 7226,
      "Ġcupidity": 7227,
      "Ġfountain": 7228,
      "Ġfixtures": 7229,
      "Ġpowers": 7230,
      "Ġpulse": 7231,
      "Ġphenomen": 7232,
      "Ġdandy": 7233,
      "Ġdisease": 7234,
      "Ġdwindling": 7235,
      "Ġinherited": 7236,
      "Ġinadequ": 7237,
      "Ġnominally": 7238,
      "Ġnurse": 7239,
      "Ġhanging": 7240,
      "Ġgirl": 7241,
      "Ġhoodoos": 7242,
      "Ġhorror": 7243,
      "Ġstagers": 7244,
      "Ġstabilising": 7245,
      "ĠTaylor": 7246,
      "ĠTalbot": 7247,
      "ĠTuesday": 7248,
      "Ġreviews": 7249,
      "Ġnotepaper": 7250,
      "ĠSherlock": 7251,
      "ĠSloan": 7252,
      "ĠSeptember": 7253,
      "Ġrapid": 7254,
      "Ġrubber": 7255,
      "Ġatmosphere": 7256,
      "ĠBryan": 7257,
      "ĠBurnham": 7258,
      "ĠBernard": 7259,
      "ĠAfrica": 7260,
      "ĠHolmes": 7261,
      "Ġnephews": 7262,
      "Ġshrieked": 7263,
      "Ġmaneuver": 7264,
      "ĠOliver": 7265,
      "ĠMarshall": 7266,
      "Ġplugged": 7267,
      "Ġwholesome": 7268,
      "ĠNassau": 7269,
      "ĠRussell": 7270,
      "Ġunpleasant": 7271,
      "Ġunnecess": 7272,
      "Ġunanimously": 7273,
      "ĠPittsburgh": 7274,
      "ĠPhipps": 7275,
      "ĠPetroleum": 7276,
      "ĠChina": 7277,
      "ĠClimax": 7278,
      "ĠClifton": 7279,
      "Ġvividly": 7280,
      "Ġvulnerable": 7281,
      "Ġseparate": 7282,
      "Ġenvelopes": 7283,
      "Ġenvelope": 7284,
      "Ġaccusations": 7285,
      "Ġovercoat": 7286,
      "Ġlibrarian": 7287,
      "ĠFebruary": 7288,
      "ĠGridley": 7289,
      "Ġimportuned": 7290,
      "Ġdisproportion": 7291,
      "Ġdislodge": 7292,
      "Ġdisadvantages": 7293,
      "Ġdisinterested": 7294,
      "Ġindecision": 7295,
      "Ġcleverest": 7296,
      "Ġtelescope": 7297,
      "Ġswapping": 7298,
      "Ġconsciousness": 7299,
      "Ġcarriage": 7300,
      "Ġcargoes": 7301,
      "Ġmemorandum": 7302,
      "Ġdemonstrated": 7303,
      "Ġdemoralisation": 7304,
      "Ġchronic": 7305,
      "Ġpoliticians": 7306,
      "Ġauthentic": 7307,
      "Ġmisrepresent": 7308,
      "Ġcorporations": 7309,
      "Ġsubconscious": 7310,
      "Ġinterrupted": 7311,
      "Ġunconcerned": 7312,
      "Ġequivalent": 7313,
      "Ġimmensely": 7314,
      "Ġtrustworthy": 7315,
      "Ġmercantile": 7316,
      "Ġcolleagues": 7317,
      "Ġphilosophical": 7318,
      "ĠHarriman": 7319,
      "ĠMcKinley": 7320,
      "ĠBoardwalk": 7321,
      "Ġstrengthened": 7322,
      "Ġdestruction": 7323,
      "!'": 7324,
      "\"?": 7325,
      ",'": 7326,
      ",-": 7327,
      "-$": 7328,
      ".-": 7329,
      "17": 7330,
      "115": 7331,
      "160": 7332,
      "172": 7333,
      "23": 7334,
      "27": 7335,
      "260": 7336,
      "298": 7337,
      "32": 7338,
      "310": 7339,
      "340": 7340,
      "41": 7341,
      "42": 7342,
      "47": 7343,
      "400": 7344,
      "55": 7345,
      "63": 7346,
      "65": 7347,
      "76": 7348,
      "700": 7349,
      "84": 7350,
      "860": 7351,
      "92": 7352,
      "?-": 7353,
      "Al": 7354,
      "Am": 7355,
      "An": 7356,
      "At": 7357,
      "Aw": 7358,
      "Be": 7359,
      "By": 7360,
      "Bains": 7361,
      "CK": 7362,
      "Con": 7363,
      "Copper": 7364,
      "Down": 7365,
      "Dave": 7366,
      "ED": 7367,
      "ET": 7368,
      "Fr": 7369,
      "Five": 7370,
      "First": 7371,
      "GS": 7372,
      "Get": 7373,
      "Gos": 7374,
      "Give": 7375,
      "Great": 7376,
      "Gates": 7377,
      "Hi": 7378,
      "His": 7379,
      "Hell": 7380,
      "Here": 7381,
      "Hel": 7382,
      "Honest": 7383,
      "Harr": 7384,
      "Horace": 7385,
      "IN": 7386,
      "IV": 7387,
      "In": 7388,
      "Keep": 7389,
      "LY": 7390,
      "Le": 7391,
      "Lo": 7392,
      "Livingston": 7393,
      "Leeds": 7394,
      "Lawrence": 7395,
      "Me": 7396,
      "Make": 7397,
      "Made": 7398,
      "Mine": 7399,
      "Mighty": 7400,
      "Moore": 7401,
      "New": 7402,
      "Northern": 7403,
      "NER": 7404,
      "OR": 7405,
      "Or": 7406,
      "One": 7407,
      "Ollie": 7408,
      "Pr": 7409,
      "Pres": 7410,
      "Ry": 7411,
      "Rock": 7412,
      "Ringer": 7413,
      "St": 7414,
      "Su": 7415,
      "Sit": 7416,
      "See": 7417,
      "Senator": 7418,
      "Speculation": 7419,
      "Tr": 7420,
      "Than": 7421,
      "Them": 7422,
      "Use": 7423,
      "UCK": 7424,
      "ULY": 7425,
      "Van": 7426,
      "Very": 7427,
      "Wh": 7428,
      "Want": 7429,
      "Wrong": 7430,
      "Wait": 7431,
      "Your": 7432,
      "Yeh": 7433,
      "af": 7434,
      "aha": 7435,
      "ais": 7436,
      "aest": 7437,
      "aves": 7438,
      "aft": 7439,
      "ahead": 7440,
      "aution": 7441,
      "bi": 7442,
      "bo": 7443,
      "bu": 7444,
      "bon": 7445,
      "bet": 7446,
      "bal": 7447,
      "bell": 7448,
      "bine": 7449,
      "bind": 7450,
      "bun": 7451,
      "bert": 7452,
      "bition": 7453,
      "bting": 7454,
      "bably": 7455,
      "bvious": 7456,
      "broad": 7457,
      "bear": 7458,
      "bidd": 7459,
      "cer": 7460,
      "cut": 7461,
      "cle": 7462,
      "cest": 7463,
      "cost": 7464,
      "cies": 7465,
      "celled": 7466,
      "cont": 7467,
      "cibility": 7468,
      "creen": 7469,
      "counter": 7470,
      "chery": 7471,
      "capable": 7472,
      "den": 7473,
      "did": 7474,
      "dow": 7475,
      "done": 7476,
      "dour": 7477,
      "dist": 7478,
      "down": 7479,
      "due": 7480,
      "dger": 7481,
      "dged": 7482,
      "duct": 7483,
      "direct": 7484,
      "distance": 7485,
      "dope": 7486,
      "dits": 7487,
      "dares": 7488,
      "dotes": 7489,
      "deeds": 7490,
      "dressed": 7491,
      "eve": 7492,
      "eper": 7493,
      "every": 7494,
      "even": 7495,
      "eff": 7496,
      "eered": 7497,
      "eying": 7498,
      "eating": 7499,
      "eams": 7500,
      "ecess": 7501,
      "eav": 7502,
      "epend": 7503,
      "eats": 7504,
      "fil": 7505,
      "fered": 7506,
      "full": 7507,
      "ford": 7508,
      "fident": 7509,
      "forts": 7510,
      "fav": 7511,
      "fortun": 7512,
      "fisted": 7513,
      "faster": 7514,
      "ficial": 7515,
      "fresh": 7516,
      "faced": 7517,
      "firing": 7518,
      "first": 7519,
      "gen": 7520,
      "gly": 7521,
      "gle": 7522,
      "give": 7523,
      "gun": 7524,
      "gings": 7525,
      "gather": 7526,
      "gling": 7527,
      "giver": 7528,
      "gotten": 7529,
      "given": 7530,
      "gbert": 7531,
      "hon": 7532,
      "him": 7533,
      "hound": 7534,
      "hum": 7535,
      "hful": 7536,
      "high": 7537,
      "hol": 7538,
      "hog": 7539,
      "hics": 7540,
      "hips": 7541,
      "holog": 7542,
      "hony": 7543,
      "horter": 7544,
      "iw": 7545,
      "ias": 7546,
      "iot": 7547,
      "iom": 7548,
      "ios": 7549,
      "iqu": 7550,
      "iag": 7551,
      "ius": 7552,
      "iating": 7553,
      "iol": 7554,
      "iably": 7555,
      "iency": 7556,
      "ibles": 7557,
      "iants": 7558,
      "ka": 7559,
      "kable": 7560,
      "kens": 7561,
      "lit": 7562,
      "lar": 7563,
      "lic": 7564,
      "low": 7565,
      "loo": 7566,
      "light": 7567,
      "lie": 7568,
      "lum": 7569,
      "lations": 7570,
      "looked": 7571,
      "lace": 7572,
      "lative": 7573,
      "losed": 7574,
      "lster": 7575,
      "listed": 7576,
      "lety": 7577,
      "lomatic": 7578,
      "mp": 7579,
      "mon": 7580,
      "mal": 7581,
      "more": 7582,
      "mist": 7583,
      "made": 7584,
      "mind": 7585,
      "mber": 7586,
      "mother": 7587,
      "mying": 7588,
      "math": 7589,
      "master": 7590,
      "mmy": 7591,
      "member": 7592,
      "minate": 7593,
      "mighty": 7594,
      "mburgh": 7595,
      "mbre": 7596,
      "maha": 7597,
      "non": 7598,
      "nes": 7599,
      "nat": 7600,
      "nly": 7601,
      "name": 7602,
      "nant": 7603,
      "nest": 7604,
      "nine": 7605,
      "nough": 7606,
      "nty": 7607,
      "natur": 7608,
      "nilly": 7609,
      "niest": 7610,
      "normal": 7611,
      "nicious": 7612,
      "oe": 7613,
      "oing": 7614,
      "oad": 7615,
      "oil": 7616,
      "oked": 7617,
      "oarding": 7618,
      "oyal": 7619,
      "pid": 7620,
      "pse": 7621,
      "poo": 7622,
      "port": 7623,
      "pound": 7624,
      "pity": 7625,
      "pile": 7626,
      "power": 7627,
      "pass": 7628,
      "ports": 7629,
      "prod": 7630,
      "preme": 7631,
      "paying": 7632,
      "piring": 7633,
      "passed": 7634,
      "rot": 7635,
      "rad": 7636,
      "ros": 7637,
      "rres": 7638,
      "rain": 7639,
      "rop": 7640,
      "rake": 7641,
      "rate": 7642,
      "ries": 7643,
      "rook": 7644,
      "rings": 7645,
      "rage": 7646,
      "rait": 7647,
      "race": 7648,
      "rged": 7649,
      "raid": 7650,
      "rule": 7651,
      "ramm": 7652,
      "rified": 7653,
      "rowing": 7654,
      "ropolitan": 7655,
      "ront": 7656,
      "rah": 7657,
      "rudent": 7658,
      "rigger": 7659,
      "rigging": 7660,
      "raud": 7661,
      "rnest": 7662,
      "she": 7663,
      "ser": 7664,
      "sion": 7665,
      "sers": 7666,
      "spe": 7667,
      "sable": 7668,
      "sook": 7669,
      "sign": 7670,
      "saw": 7671,
      "sav": 7672,
      "spr": 7673,
      "scr": 7674,
      "somet": 7675,
      "sume": 7676,
      "serves": 7677,
      "sighted": 7678,
      "saver": 7679,
      "specul": 7680,
      "screen": 7681,
      "tw": 7682,
      "tre": 7683,
      "tter": 7684,
      "tight": 7685,
      "tain": 7686,
      "top": 7687,
      "tant": 7688,
      "took": 7689,
      "taking": 7690,
      "tained": 7691,
      "told": 7692,
      "tipped": 7693,
      "taker": 7694,
      "ux": 7695,
      "uit": 7696,
      "ued": 7697,
      "uar": 7698,
      "uent": 7699,
      "uper": 7700,
      "uge": 7701,
      "upp": 7702,
      "uable": 7703,
      "uage": 7704,
      "uities": 7705,
      "uided": 7706,
      "upend": 7707,
      "uined": 7708,
      "uhn": 7709,
      "uaded": 7710,
      "vy": 7711,
      "vice": 7712,
      "vil": 7713,
      "vard": 7714,
      "vents": 7715,
      "vict": 7716,
      "vented": 7717,
      "vals": 7718,
      "vival": 7719,
      "vasive": 7720,
      "vators": 7721,
      "win": 7722,
      "won": 7723,
      "what": 7724,
      "wom": 7725,
      "wart": 7726,
      "when": 7727,
      "why": 7728,
      "word": 7729,
      "wiss": 7730,
      "wab": 7731,
      "western": 7732,
      "wouldn": 7733,
      "xed": 7734,
      "xus": 7735,
      "xibility": 7736,
      "xistent": 7737,
      "xiom": 7738,
      "yed": 7739,
      "ype": 7740,
      "your": 7741,
      "yday": 7742,
      "yson": 7743,
      "yeh": 7744,
      "ydr": 7745,
      "ylum": 7746,
      "ze": 7747,
      "zi": 7748,
      "zer": 7749,
      "zard": 7750,
      "zac": 7751,
      "zling": 7752,
      "Â»": 7753,
      "Ġ*": 7754,
      "ĠX": 7755,
      "ĠZ": 7756,
      "Ġq": 7757,
      "Ġera": 7758,
      "Ġerr": 7759,
      "Ġ72": 7760,
      "Ġerred": 7761,
      "Ġ400": 7762,
      "ĠÂ»": 7763,
      "Ġtar": 7764,
      "Ġtate": 7765,
      "Ġtie": 7766,
      "Ġtack": 7767,
      "Ġtag": 7768,
      "Ġties": 7769,
      "Ġtac": 7770,
      "Ġtarant": 7771,
      "Ġtakers": 7772,
      "hely": 7773,
      "hever": 7774,
      "heard": 7775,
      "heap": 7776,
      "heme": 7777,
      "health": 7778,
      "Ġack": 7779,
      "Ġald": 7780,
      "Ġast": 7781,
      "Ġaro": 7782,
      "Ġaph": 7783,
      "Ġafresh": 7784,
      "Ġaxiom": 7785,
      "inal": 7786,
      "iners": 7787,
      "inter": 7788,
      "inating": 7789,
      "inical": 7790,
      "inson": 7791,
      "inside": 7792,
      "invest": 7793,
      "inuate": 7794,
      "ineth": 7795,
      "inued": 7796,
      "Ġwre": 7797,
      "Ġwing": 7798,
      "Ġwed": 7799,
      "Ġwad": 7800,
      "Ġwall": 7801,
      "Ġwest": 7802,
      "Ġwool": 7803,
      "Ġwily": 7804,
      "Ġwret": 7805,
      "Ġwaving": 7806,
      "Ġwestern": 7807,
      "Ġwitted": 7808,
      "Ġwaver": 7809,
      "Ġwoe": 7810,
      "Ġoh": 7811,
      "Ġol": 7812,
      "Ġore": 7813,
      "Ġost": 7814,
      "Ġoce": 7815,
      "Ġood": 7816,
      "Ġomin": 7817,
      "Ġoxy": 7818,
      "Ġodour": 7819,
      "Ġotter": 7820,
      "Ġsou": 7821,
      "Ġshat": 7822,
      "Ġsan": 7823,
      "Ġsock": 7824,
      "Ġsere": 7825,
      "Ġsul": 7826,
      "Ġsown": 7827,
      "Ġsink": 7828,
      "Ġsane": 7829,
      "Ġsources": 7830,
      "Ġserve": 7831,
      "Ġscient": 7832,
      "Ġscience": 7833,
      "Ġsixt": 7834,
      "Ġsins": 7835,
      "Ġsinking": 7836,
      "Ġscientific": 7837,
      "Ġsardon": 7838,
      "Ġmut": 7839,
      "Ġmic": 7840,
      "Ġmal": 7841,
      "Ġment": 7842,
      "Ġmong": 7843,
      "Ġmink": 7844,
      "Ġmast": 7845,
      "Ġmud": 7846,
      "Ġmap": 7847,
      "Ġmoll": 7848,
      "Ġmix": 7849,
      "Ġmuc": 7850,
      "Ġmakers": 7851,
      "Ġmilit": 7852,
      "Ġmiles": 7853,
      "Ġmunition": 7854,
      "Ġmastic": 7855,
      "Ġmush": 7856,
      "Ġmounted": 7857,
      "had": 7858,
      "hap": 7859,
      "hand": 7860,
      "happ": 7861,
      "havi": 7862,
      "haired": 7863,
      "rees": 7864,
      "rely": 7865,
      "rele": 7866,
      "reason": 7867,
      "reli": 7868,
      "reary": 7869,
      "recy": 7870,
      "Ġbing": 7871,
      "Ġbat": 7872,
      "Ġble": 7873,
      "Ġball": 7874,
      "Ġboo": 7875,
      "Ġbally": 7876,
      "Ġbau": 7877,
      "Ġbod": 7878,
      "Ġbite": 7879,
      "Ġbait": 7880,
      "Ġbab": 7881,
      "Ġbail": 7882,
      "Ġbilli": 7883,
      "Ġbatch": 7884,
      "Ġborne": 7885,
      "Ġbothers": 7886,
      "Ġbaff": 7887,
      "Ġboring": 7888,
      "Ġbantam": 7889,
      "ĠInt": 7890,
      "ĠIron": 7891,
      "ĠIrres": 7892,
      "erk": 7893,
      "eran": 7894,
      "erish": 7895,
      "erity": 7896,
      "ervers": 7897,
      "ndry": 7898,
      "ndency": 7899,
      "oured": 7900,
      "ourer": 7901,
      "Ġtoe": 7902,
      "Ġton": 7903,
      "Ġtore": 7904,
      "Ġtong": 7905,
      "Ġtodd": 7906,
      "Ġtoken": 7907,
      "Ġtomorrow": 7908,
      "Ġtokens": 7909,
      "Ġtommy": 7910,
      "Ġchat": 7911,
      "Ġcow": 7912,
      "Ġcad": 7913,
      "Ġcell": 7914,
      "Ġcul": 7915,
      "Ġcess": 7916,
      "Ġcous": 7917,
      "Ġcig": 7918,
      "Ġcause": 7919,
      "Ġcast": 7920,
      "Ġcree": 7921,
      "Ġcater": 7922,
      "Ġcinc": 7923,
      "Ġcited": 7924,
      "Ġcats": 7925,
      "Ġcaut": 7926,
      "Ġcares": 7927,
      "Ġceler": 7928,
      "Ġcudge": 7929,
      "inge": 7930,
      "ingers": 7931,
      "ingered": 7932,
      "ito": 7933,
      "itent": 7934,
      "itation": 7935,
      "itish": 7936,
      "itory": 7937,
      "iturn": 7938,
      "itans": 7939,
      "itating": 7940,
      "itative": 7941,
      "itute": 7942,
      "itics": 7943,
      "itched": 7944,
      "itution": 7945,
      "itney": 7946,
      "ithely": 7947,
      "oning": 7948,
      "oned": 7949,
      "onist": 7950,
      "onents": 7951,
      "onitions": 7952,
      "onless": 7953,
      "onia": 7954,
      "onously": 7955,
      "onho": 7956,
      "onounced": 7957,
      "onourable": 7958,
      "onzi": 7959,
      "lla": 7960,
      "lling": 7961,
      "llous": 7962,
      "Ġfis": 7963,
      "Ġfed": 7964,
      "Ġful": 7965,
      "Ġfake": 7966,
      "Ġfate": 7967,
      "Ġfars": 7968,
      "Ġfade": 7969,
      "Ġfought": 7970,
      "Ġfost": 7971,
      "Ġfus": 7972,
      "Ġfans": 7973,
      "Ġfol": 7974,
      "Ġfold": 7975,
      "Ġfret": 7976,
      "Ġfreed": 7977,
      "Ġfath": 7978,
      "Ġfitting": 7979,
      "Ġfaded": 7980,
      "Ġfield": 7981,
      "Ġfoul": 7982,
      "Ġfaint": 7983,
      "Ġflying": 7984,
      "Ġfashion": 7985,
      "Ġfiles": 7986,
      "Ġfuss": 7987,
      "Ġfingers": 7988,
      "Ġpit": 7989,
      "Ġpoo": 7990,
      "Ġpig": 7991,
      "Ġpest": 7992,
      "Ġpie": 7993,
      "Ġpist": 7994,
      "Ġpack": 7995,
      "Ġpause": 7996,
      "Ġpink": 7997,
      "Ġpert": 7998,
      "Ġpac": 7999,
      "Ġpity": 8000,
      "Ġpious": 8001,
      "Ġpave": 8002,
      "Ġpale": 8003,
      "Ġpets": 8004,
      "Ġpinch": 8005,
      "Ġpne": 8006,
      "Ġpiped": 8007,
      "Ġpitting": 8008,
      "Ġpike": 8009,
      "Ġpals": 8010,
      "Ġpipe": 8011,
      "Ġpants": 8012,
      "Ġpige": 8013,
      "Ġpardon": 8014,
      "Ġphony": 8015,
      "Ġdar": 8016,
      "Ġdim": 8017,
      "Ġdice": 8018,
      "Ġdive": 8019,
      "Ġdil": 8020,
      "Ġdough": 8021,
      "Ġdarn": 8022,
      "Ġdry": 8023,
      "Ġdated": 8024,
      "Ġdail": 8025,
      "Ġdying": 8026,
      "Ġdaw": 8027,
      "Ġdared": 8028,
      "Ġdips": 8029,
      "Ġdark": 8030,
      "Ġdub": 8031,
      "Ġdiver": 8032,
      "Ġdaring": 8033,
      "Ġdreading": 8034,
      "Ġdump": 8035,
      "Ġdashed": 8036,
      "Ġdata": 8037,
      "Ġdigested": 8038,
      "Ġdreary": 8039,
      "ene": 8040,
      "eness": 8041,
      "enable": 8042,
      "enious": 8043,
      "asm": 8044,
      "asy": 8045,
      "asper": 8046,
      "asking": 8047,
      "asible": 8048,
      "ashes": 8049,
      "assel": 8050,
      "asping": 8051,
      "isite": 8052,
      "isman": 8053,
      "orad": 8054,
      "orce": 8055,
      "oration": 8056,
      "orator": 8057,
      "orked": 8058,
      "orings": 8059,
      "orus": 8060,
      "orily": 8061,
      "orously": 8062,
      "orisms": 8063,
      "ederal": 8064,
      "ednes": 8065,
      "ara": 8066,
      "arl": 8067,
      "arion": 8068,
      "arse": 8069,
      "aration": 8070,
      "arment": 8071,
      "arations": 8072,
      "arried": 8073,
      "Ġines": 8074,
      "Ġinse": 8075,
      "Ġinward": 8076,
      "Ġinsol": 8077,
      "Ġinel": 8078,
      "Ġinability": 8079,
      "Ġinoff": 8080,
      "Ġinception": 8081,
      "Ġineff": 8082,
      "ese": 8083,
      "eside": 8084,
      "esale": 8085,
      "essee": 8086,
      "eserving": 8087,
      "aning": 8088,
      "ange": 8089,
      "anges": 8090,
      "Ġwashed": 8091,
      "atom": 8092,
      "atul": 8093,
      "atter": 8094,
      "atig": 8095,
      "atum": 8096,
      "athy": 8097,
      "atised": 8098,
      "atics": 8099,
      "atched": 8100,
      "atisf": 8101,
      "atches": 8102,
      "atriot": 8103,
      "atants": 8104,
      "atrain": 8105,
      "Ġnation": 8106,
      "Ġnud": 8107,
      "Ġnorm": 8108,
      "Ġnib": 8109,
      "Ġnative": 8110,
      "Ġnorth": 8111,
      "Ġnons": 8112,
      "Ġnaught": 8113,
      "Ġnerved": 8114,
      "Ġnamed": 8115,
      "Ġnoose": 8116,
      "Ġhall": 8117,
      "Ġhaught": 8118,
      "Ġhalt": 8119,
      "Ġhagg": 8120,
      "Ġhailing": 8121,
      "Ġhavo": 8122,
      "Ġhapha": 8123,
      "Ġbeard": 8124,
      "Ġbearers": 8125,
      "Ġlee": 8126,
      "Ġlake": 8127,
      "Ġlip": 8128,
      "Ġlick": 8129,
      "Ġlure": 8130,
      "Ġlying": 8131,
      "Ġlively": 8132,
      "Ġlang": 8133,
      "Ġlazy": 8134,
      "Ġlighten": 8135,
      "Ġlacked": 8136,
      "Ġlump": 8137,
      "Ġlicking": 8138,
      "Ġlamb": 8139,
      "Ġlux": 8140,
      "Ġlingered": 8141,
      "cks": 8142,
      "Ġgle": 8143,
      "Ġgos": 8144,
      "Ġgain": 8145,
      "Ġgau": 8146,
      "Ġgum": 8147,
      "Ġgaz": 8148,
      "Ġgilt": 8149,
      "Ġgaff": 8150,
      "Ġgoose": 8151,
      "Ġgivers": 8152,
      "Ġgoner": 8153,
      "Ġgiants": 8154,
      "Ġgasping": 8155,
      "Ġgarment": 8156,
      "Ġhill": 8157,
      "Ġhound": 8158,
      "Ġhire": 8159,
      "Ġhide": 8160,
      "Ġhooked": 8161,
      "Ġhither": 8162,
      "Ġhounds": 8163,
      "Ġhydr": 8164,
      "Ġhonourable": 8165,
      "eting": 8166,
      "etest": 8167,
      "eties": 8168,
      "etite": 8169,
      "etary": 8170,
      "etime": 8171,
      "eterate": 8172,
      "etuous": 8173,
      "ettled": 8174,
      "ettant": 8175,
      "eteran": 8176,
      "oters": 8177,
      "othing": 8178,
      "oths": 8179,
      "otype": 8180,
      "otonously": 8181,
      "ider": 8182,
      "idem": 8183,
      "idable": 8184,
      "idav": 8185,
      "lder": 8186,
      "utz": 8187,
      "utors": 8188,
      "utches": 8189,
      "Ġsting": 8190,
      "Ġstam": 8191,
      "Ġstew": 8192,
      "Ġstau": 8193,
      "Ġstable": 8194,
      "Ġstated": 8195,
      "Ġstare": 8196,
      "Ġstiff": 8197,
      "Ġstol": 8198,
      "Ġstates": 8199,
      "Ġstret": 8200,
      "Ġstump": 8201,
      "Ġstoop": 8202,
      "Ġsteers": 8203,
      "Ġstepp": 8204,
      "Ġstrolled": 8205,
      "Ġsteams": 8206,
      "Ġstupend": 8207,
      "oms": 8208,
      "omed": 8209,
      "ompl": 8210,
      "omaly": 8211,
      "omoters": 8212,
      "ico": 8213,
      "icit": 8214,
      "icers": 8215,
      "icur": 8216,
      "icence": 8217,
      "icable": 8218,
      "ications": 8219,
      "icting": 8220,
      "icating": 8221,
      "icative": 8222,
      "icult": 8223,
      "icism": 8224,
      "iciously": 8225,
      "ichever": 8226,
      "vexed": 8227,
      "vellous": 8228,
      "ĠTim": 8229,
      "ĠTell": 8230,
      "ĠToo": 8231,
      "ĠTip": 8232,
      "ĠTamm": 8233,
      "ĠTips": 8234,
      "ĠTub": 8235,
      "ĠTape": 8236,
      "ĠTenn": 8237,
      "ĠTerr": 8238,
      "ĠTele": 8239,
      "ĠTUCK": 8240,
      "ĠTitans": 8241,
      "Ġones": 8242,
      "sten": 8243,
      "stall": 8244,
      "still": 8245,
      "stiff": 8246,
      "storm": 8247,
      "stract": 8248,
      "stimate": 8249,
      "string": 8250,
      "stifying": 8251,
      "aysh": 8252,
      "owledge": 8253,
      "Ġthro": 8254,
      "Ġthick": 8255,
      "Ġthrew": 8256,
      "Ġthinner": 8257,
      "Ġthwart": 8258,
      "sey": 8259,
      "send": 8260,
      "seven": 8261,
      "seated": 8262,
      "seasonable": 8263,
      "semin": 8264,
      "Ġheed": 8265,
      "Ġheir": 8266,
      "Ġhero": 8267,
      "Ġheel": 8268,
      "Ġheaving": 8269,
      "Ġheeded": 8270,
      "Ġhearers": 8271,
      "Ġheyday": 8272,
      "adle": 8273,
      "aders": 8274,
      "adul": 8275,
      "adise": 8276,
      "adually": 8277,
      "adical": 8278,
      "advent": 8279,
      "aduate": 8280,
      "alif": 8281,
      "alable": 8282,
      "alco": 8283,
      "aluable": 8284,
      "alzac": 8285,
      "Ġeat": 8286,
      "Ġears": 8287,
      "Ġegg": 8288,
      "Ġego": 8289,
      "Ġelder": 8290,
      "iman": 8291,
      "imly": 8292,
      "imal": 8293,
      "imper": 8294,
      "imation": 8295,
      "imism": 8296,
      "immying": 8297,
      "enth": 8298,
      "entive": 8299,
      "entur": 8300,
      "entories": 8301,
      "entrate": 8302,
      "Ġmyri": 8303,
      "Ġmystifying": 8304,
      "vering": 8305,
      "verty": 8306,
      "verting": 8307,
      "vernight": 8308,
      "Ġmend": 8309,
      "Ġmechan": 8310,
      "Ġrect": 8311,
      "Ġream": 8312,
      "Ġreest": 8313,
      "Ġreven": 8314,
      "Ġreleas": 8315,
      "Ġreject": 8316,
      "Ġrefer": 8317,
      "Ġreaches": 8318,
      "Ġrevival": 8319,
      "Ġugly": 8320,
      "Ġumbre": 8321,
      "Ġforte": 8322,
      "Ġforbidd": 8323,
      "Ġforsook": 8324,
      "Ġpris": 8325,
      "Ġpray": 8326,
      "Ġpried": 8327,
      "Ġprize": 8328,
      "Ġprime": 8329,
      "Ġpraise": 8330,
      "Ġpronounced": 8331,
      "leak": 8332,
      "learn": 8333,
      "leaded": 8334,
      "leader": 8335,
      "levard": 8336,
      "Ġassid": 8337,
      "Ġaspha": 8338,
      "Ġasylum": 8339,
      "elling": 8340,
      "ellen": 8341,
      "Ġnoted": 8342,
      "Ġnotions": 8343,
      "Ġnotices": 8344,
      "Ġnotified": 8345,
      "cement": 8346,
      "ceful": 8347,
      "celed": 8348,
      "ceased": 8349,
      "ceived": 8350,
      "cember": 8351,
      "Ġbum": 8352,
      "Ġbuzz": 8353,
      "Ġbudged": 8354,
      "ĠSir": 8355,
      "ĠSch": 8356,
      "ĠSant": 8357,
      "ĠSil": 8358,
      "ĠSun": 8359,
      "ĠSound": 8360,
      "ĠSimp": 8361,
      "ĠSever": 8362,
      "ĠSign": 8363,
      "ĠSel": 8364,
      "ĠSorry": 8365,
      "ĠSimil": 8366,
      "ĠSlow": 8367,
      "ĠSwiss": 8368,
      "ĠSyson": 8369,
      "ctious": 8370,
      "ctivity": 8371,
      "cturer": 8372,
      "Ġanci": 8373,
      "Ġangr": 8374,
      "Ġanec": 8375,
      "Ġancient": 8376,
      "Ġanaest": 8377,
      "Ġancest": 8378,
      "Ġanvil": 8379,
      "Ġanatom": 8380,
      "Ġanomaly": 8381,
      "Ġanimal": 8382,
      "keeper": 8383,
      "Ġray": 8384,
      "Ġrow": 8385,
      "Ġrand": 8386,
      "Ġrake": 8387,
      "Ġrip": 8388,
      "Ġrod": 8389,
      "Ġriv": 8390,
      "Ġrack": 8391,
      "Ġround": 8392,
      "Ġride": 8393,
      "Ġrated": 8394,
      "Ġrare": 8395,
      "Ġrib": 8396,
      "Ġracon": 8397,
      "Ġrude": 8398,
      "Ġrowing": 8399,
      "Ġrime": 8400,
      "Ġroul": 8401,
      "Ġripe": 8402,
      "Ġrifle": 8403,
      "Ġrode": 8404,
      "Ġrounds": 8405,
      "Ġruined": 8406,
      "Ġradical": 8407,
      "Ġdove": 8408,
      "Ġdose": 8409,
      "Ġdoses": 8410,
      "Ġtrance": 8411,
      "Ġtroll": 8412,
      "Ġtrave": 8413,
      "Ġtrib": 8414,
      "Ġtrained": 8415,
      "Ġtruly": 8416,
      "Ġtrailing": 8417,
      "Ġtraff": 8418,
      "Ġoracular": 8419,
      "Ġmarry": 8420,
      "Ġmarried": 8421,
      "Ġmarsha": 8422,
      "Ġmarvellous": 8423,
      "amy": 8424,
      "amation": 8425,
      "amil": 8426,
      "ammar": 8427,
      "amental": 8428,
      "ametr": 8429,
      "amishness": 8430,
      "amoc": 8431,
      "ĠWon": 8432,
      "ĠWould": 8433,
      "ĠWill": 8434,
      "ĠWood": 8435,
      "ĠWire": 8436,
      "ĠWild": 8437,
      "ĠWester": 8438,
      "ĠWAR": 8439,
      "ĠWinn": 8440,
      "ĠWouldn": 8441,
      "ĠWednes": 8442,
      "ĠBB": 8443,
      "ĠBY": 8444,
      "ĠBir": 8445,
      "ĠBill": 8446,
      "ĠBour": 8447,
      "ĠBack": 8448,
      "ĠBus": 8449,
      "ĠBacon": 8450,
      "ĠBilly": 8451,
      "ĠBantam": 8452,
      "ĠBeside": 8453,
      "ĠBaysh": 8454,
      "ĠBalzac": 8455,
      "erences": 8456,
      "irm": 8457,
      "irond": 8458,
      "ĠAH": 8459,
      "ĠAir": 8460,
      "ĠAven": 8461,
      "ĠAustr": 8462,
      "ĠActivity": 8463,
      "allot": 8464,
      "allible": 8465,
      "peal": 8466,
      "peka": 8467,
      "Ġwhist": 8468,
      "Ġwhite": 8469,
      "Ġwhips": 8470,
      "Ġwhining": 8471,
      "Ġwhiners": 8472,
      "Ġwhichever": 8473,
      "Ġwhimper": 8474,
      "ula": 8475,
      "ulsion": 8476,
      "Ġkos": 8477,
      "Ġkings": 8478,
      "Ġkicking": 8479,
      "ooves": 8480,
      "ooping": 8481,
      "essed": 8482,
      "hers": 8483,
      "herman": 8484,
      "Ġsoak": 8485,
      "Ġsocial": 8486,
      "Ġsolem": 8487,
      "Ġsoothing": 8488,
      "oused": 8489,
      "ousness": 8490,
      "ĠHist": 8491,
      "ĠHint": 8492,
      "ĠHart": 8493,
      "ĠHun": 8494,
      "ĠHick": 8495,
      "ĠHud": 8496,
      "ĠHoll": 8497,
      "ĠHanc": 8498,
      "ĠHonest": 8499,
      "ĠHann": 8500,
      "ĠHonor": 8501,
      "ĠHorace": 8502,
      "ĠHoarding": 8503,
      "ĠHamil": 8504,
      "Ġneigh": 8505,
      "Ġnearest": 8506,
      "child": 8507,
      "ifies": 8508,
      "ifted": 8509,
      "illising": 8510,
      "ĠStrong": 8511,
      "ĠStrait": 8512,
      "ĠStutz": 8513,
      "pera": 8514,
      "Ġally": 8515,
      "Ġallot": 8516,
      "Ġallig": 8517,
      "Ġallud": 8518,
      "Ġsue": 8519,
      "Ġsuited": 8520,
      "Ġsupers": 8521,
      "Ġsupreme": 8522,
      "Ġdepl": 8523,
      "Ġdeuce": 8524,
      "Ġdeceive": 8525,
      "Ġdeception": 8526,
      "Ġdeaf": 8527,
      "Ġdeceased": 8528,
      "Ġshown": 8529,
      "Ġshiver": 8530,
      "Ġshuff": 8531,
      "Ġshimmying": 8532,
      "terly": 8533,
      "terated": 8534,
      "Ġsap": 8535,
      "Ġsand": 8536,
      "Ġsake": 8537,
      "Ġsaun": 8538,
      "Ġsables": 8539,
      "Ġsailed": 8540,
      "Ġknife": 8541,
      "Ġknees": 8542,
      "Ġframe": 8543,
      "Ġfract": 8544,
      "Ġfraud": 8545,
      "igan": 8546,
      "igmans": 8547,
      "iggers": 8548,
      "iggle": 8549,
      "igramm": 8550,
      "Ġups": 8551,
      "Ġupper": 8552,
      "Ġupro": 8553,
      "Ġmanus": 8554,
      "Ġmanage": 8555,
      "Ġmanger": 8556,
      "Ġmanicur": 8557,
      "osive": 8558,
      "osited": 8559,
      "oswell": 8560,
      "eem": 8561,
      "resay": 8562,
      "orton": 8563,
      "ortly": 8564,
      "ortled": 8565,
      "ortality": 8566,
      "ainst": 8567,
      "ivel": 8568,
      "ivered": 8569,
      "opted": 8570,
      "Ġbutter": 8571,
      "anda": 8572,
      "Ġexert": 8573,
      "Ġexisted": 8574,
      "Ġexempt": 8575,
      "Ġexempl": 8576,
      "Ġexhorter": 8577,
      "Ġexasper": 8578,
      "ural": 8579,
      "uration": 8580,
      "urate": 8581,
      "urable": 8582,
      "urious": 8583,
      "urcha": 8584,
      "urances": 8585,
      "uriating": 8586,
      "urries": 8587,
      "Ġoutset": 8588,
      "Ġoutput": 8589,
      "Ġoutdone": 8590,
      "Ġoutrage": 8591,
      "ĠOut": 8592,
      "ĠOur": 8593,
      "ĠOwing": 8594,
      "ĠObvious": 8595,
      "ĠOmaha": 8596,
      "ĠOvernight": 8597,
      "ĠOpera": 8598,
      "Ġseller": 8599,
      "usting": 8600,
      "ustered": 8601,
      "Ġproven": 8602,
      "Ġprodd": 8603,
      "Ġproduct": 8604,
      "ipper": 8605,
      "ipient": 8606,
      "ipitated": 8607,
      "Ġtiming": 8608,
      "Ġtimid": 8609,
      "Ġtimers": 8610,
      "empor": 8611,
      "Ġabject": 8612,
      "Ġabund": 8613,
      "Ġabrupt": 8614,
      "Ġabnormal": 8615,
      "Ġabstract": 8616,
      "Ġcompel": 8617,
      "quiet": 8618,
      "quests": 8619,
      "Ġbygone": 8620,
      "ourish": 8621,
      "ourism": 8622,
      "ouragement": 8623,
      "ourney": 8624,
      "ourceful": 8625,
      "Ġthereabouts": 8626,
      "Ġcony": 8627,
      "Ġconies": 8628,
      "Ġconsol": 8629,
      "Ġconnot": 8630,
      "Ġcongr": 8631,
      "Ġconsolidated": 8632,
      "Ġcongest": 8633,
      "Ġconceive": 8634,
      "Ġconvey": 8635,
      "Ġconvert": 8636,
      "Ġconveni": 8637,
      "Ġconverting": 8638,
      "Ġconquests": 8639,
      "Ġmoneyless": 8640,
      "gend": 8641,
      "Ġalive": 8642,
      "Ġalert": 8643,
      "Ġalias": 8644,
      "ilence": 8645,
      "ilage": 8646,
      "aks": 8647,
      "akings": 8648,
      "roit": 8649,
      "roving": 8650,
      "rocity": 8651,
      "rovert": 8652,
      "royed": 8653,
      "rolling": 8654,
      "actory": 8655,
      "ĠMist": 8656,
      "ĠMind": 8657,
      "ĠMull": 8658,
      "ĠMex": 8659,
      "ĠMagn": 8660,
      "ĠMining": 8661,
      "ĠMark": 8662,
      "ĠMetr": 8663,
      "ĠMighty": 8664,
      "ĠMiddle": 8665,
      "ĠMoore": 8666,
      "ĠModerate": 8667,
      "ĠMellen": 8668,
      "Ġhunt": 8669,
      "Ġhumour": 8670,
      "Ġhugs": 8671,
      "Ġshared": 8672,
      "Ġshaking": 8673,
      "Ġshaded": 8674,
      "Ġshadow": 8675,
      "Ġoffens": 8676,
      "Ġoffend": 8677,
      "Ġoffspr": 8678,
      "Ġofficers": 8679,
      "Ġplod": 8680,
      "Ġplank": 8681,
      "Ġpluck": 8682,
      "Ġpledged": 8683,
      "Ġwhoever": 8684,
      "este": 8685,
      "estions": 8686,
      "Ġnose": 8687,
      "Ġnovel": 8688,
      "Ġnovice": 8689,
      "Ġcoal": 8690,
      "Ġcoast": 8691,
      "Ġcoach": 8692,
      "Ġcoating": 8693,
      "Ġcoining": 8694,
      "Ġcoats": 8695,
      "Ġcode": 8696,
      "Ġcodger": 8697,
      "Ġcoarse": 8698,
      "istics": 8699,
      "Ġdaytime": 8700,
      "ĠNormal": 8701,
      "ĠNOT": 8702,
      "ĠNiag": 8703,
      "ĠNorton": 8704,
      "ĠNipper": 8705,
      "Ġcancelled": 8706,
      "Ġcannon": 8707,
      "Ġcanceled": 8708,
      "oded": 8709,
      "ĠRight": 8710,
      "ĠReg": 8711,
      "ĠRuss": 8712,
      "ĠRigging": 8713,
      "ĠRoad": 8714,
      "ĠRoths": 8715,
      "ĠRoswell": 8716,
      "inding": 8717,
      "index": 8718,
      "indeed": 8719,
      "indlers": 8720,
      "industrial": 8721,
      "lfast": 8722,
      "Ġunost": 8723,
      "Ġunself": 8724,
      "Ġunimp": 8725,
      "Ġunnot": 8726,
      "Ġunpr": 8727,
      "Ġunmar": 8728,
      "Ġunequ": 8729,
      "Ġunknown": 8730,
      "Ġunaff": 8731,
      "Ġunivers": 8732,
      "Ġunbel": 8733,
      "Ġunbi": 8734,
      "Ġunhon": 8735,
      "Ġunlooked": 8736,
      "Ġunmist": 8737,
      "Ġunnatur": 8738,
      "Ġunhealth": 8739,
      "Ġuninter": 8740,
      "Ġunhapp": 8741,
      "Ġunseasonable": 8742,
      "Ġunadul": 8743,
      "Ġunlearn": 8744,
      "ĠPoint": 8745,
      "ĠPend": 8746,
      "ĠPark": 8747,
      "ĠProf": 8748,
      "ĠPublic": 8749,
      "ĠPonzi": 8750,
      "Ġthanking": 8751,
      "Ġthanks": 8752,
      "Ġlever": 8753,
      "Ġleaned": 8754,
      "Ġleash": 8755,
      "Ġleaps": 8756,
      "Ġleaves": 8757,
      "Ġlecturer": 8758,
      "Ġlegend": 8759,
      "ivil": 8760,
      "ividend": 8761,
      "bling": 8762,
      "Ġgetter": 8763,
      "Ġpriceless": 8764,
      "acks": 8765,
      "ackens": 8766,
      "ccess": 8767,
      "inted": 8768,
      "Ġintens": 8769,
      "Ġintang": 8770,
      "Ġintense": 8771,
      "ĠYer": 8772,
      "ĠYale": 8773,
      "ĠYET": 8774,
      "Ġpoignant": 8775,
      "Ġpoverty": 8776,
      "ĠStocks": 8777,
      "ĠEC": 8778,
      "ĠEver": 8779,
      "ĠEast": 8780,
      "ĠEarly": 8781,
      "ĠEdd": 8782,
      "ĠEvent": 8783,
      "ĠEgy": 8784,
      "ĠElection": 8785,
      "ĠEgbert": 8786,
      "ĠEmburgh": 8787,
      "ĠEnough": 8788,
      "ĠErnest": 8789,
      "ĠEvents": 8790,
      "ĠEasy": 8791,
      "Ġprofess": 8792,
      "Ġprofound": 8793,
      "Ġtwink": 8794,
      "Ġtwineth": 8795,
      "Ġtwinge": 8796,
      "sider": 8797,
      "sidered": 8798,
      "siderate": 8799,
      "Ġsomehow": 8800,
      "Ġads": 8801,
      "Ġadage": 8802,
      "Ġadjo": 8803,
      "Ġadopted": 8804,
      "Ġadroit": 8805,
      "unless": 8806,
      "unted": 8807,
      "unken": 8808,
      "unsu": 8809,
      "unization": 8810,
      "unior": 8811,
      "unlisted": 8812,
      "unsav": 8813,
      "unicative": 8814,
      "Ġqualm": 8815,
      "Ġquitting": 8816,
      "Ġqueer": 8817,
      "Ġquality": 8818,
      "Ġquatrain": 8819,
      "Ġworm": 8820,
      "Ġworn": 8821,
      "Ġspeed": 8822,
      "Ġseeking": 8823,
      "ostling": 8824,
      "Ġbush": 8825,
      "Ġbushed": 8826,
      "Ġbushy": 8827,
      "Ġbusiest": 8828,
      "ĠCond": 8829,
      "ĠColl": 8830,
      "ĠCinc": 8831,
      "ĠCru": 8832,
      "ĠCair": 8833,
      "ĠCham": 8834,
      "ĠCertainly": 8835,
      "ĠCOT": 8836,
      "ĠCamb": 8837,
      "ĠCOR": 8838,
      "ĠCrook": 8839,
      "ĠCassel": 8840,
      "ĠCalif": 8841,
      "ĠCurious": 8842,
      "ĠCivil": 8843,
      "icks": 8844,
      "Ġjam": 8845,
      "Ġjug": 8846,
      "Ġjeered": 8847,
      "Ġjiggers": 8848,
      "Ġjourney": 8849,
      "Ġjunior": 8850,
      "Ġjostling": 8851,
      "Ġvow": 8852,
      "Ġvain": 8853,
      "Ġvag": 8854,
      "Ġvote": 8855,
      "Ġvotes": 8856,
      "Ġveteran": 8857,
      "Ġagony": 8858,
      "Ġseed": 8859,
      "Ġseated": 8860,
      "Ġseizing": 8861,
      "Ġselection": 8862,
      "Ġbigamy": 8863,
      "ossessions": 8864,
      "ishly": 8865,
      "inkable": 8866,
      "Ġbegging": 8867,
      "Ġcourt": 8868,
      "Ġcourte": 8869,
      "Ġcourier": 8870,
      "Ġamuse": 8871,
      "Ġamalgam": 8872,
      "Ġamput": 8873,
      "Ġambition": 8874,
      "Ġamiably": 8875,
      "Ġactor": 8876,
      "Ġactuar": 8877,
      "Ġenum": 8878,
      "Ġensu": 8879,
      "Ġenlist": 8880,
      "Ġprofiteer": 8881,
      "agion": 8882,
      "agog": 8883,
      "agencies": 8884,
      "against": 8885,
      "aganda": 8886,
      "Ġpup": 8887,
      "Ġpuil": 8888,
      "Ġpups": 8889,
      "Ġpurer": 8890,
      "Ġpump": 8891,
      "Ġpurely": 8892,
      "Ġaftermath": 8893,
      "Ġwilly": 8894,
      "Ġhowled": 8895,
      "Ġhowls": 8896,
      "Ġhowling": 8897,
      "Ġhowlers": 8898,
      "astating": 8899,
      "astrous": 8900,
      "astrop": 8901,
      "acing": 8902,
      "acres": 8903,
      "achery": 8904,
      "achers": 8905,
      "ounding": 8906,
      "oundering": 8907,
      "Ġusurer": 8908,
      "Ġclay": 8909,
      "Ġclams": 8910,
      "Ġclimate": 8911,
      "Ġclub": 8912,
      "Ġcloud": 8913,
      "Ġclutch": 8914,
      "Ġclapped": 8915,
      "Ġclinical": 8916,
      "Ġclarion": 8917,
      "Ġclutches": 8918,
      "ĠRemain": 8919,
      "venient": 8920,
      "Ġfriendless": 8921,
      "Ġfriendli": 8922,
      "udes": 8923,
      "Ġowes": 8924,
      "Ġdowns": 8925,
      "Ġdownright": 8926,
      "Ġsoldiers": 8927,
      "Ġaccusing": 8928,
      "aped": 8929,
      "apses": 8930,
      "aponless": 8931,
      "Ġpreach": 8932,
      "Ġprefer": 8933,
      "Ġprefere": 8934,
      "Ġprearr": 8935,
      "Ġpreface": 8936,
      "Ġprevented": 8937,
      "Ġkey": 8938,
      "Ġkeener": 8939,
      "Ġoverween": 8940,
      "Ġoverri": 8941,
      "Ġovercome": 8942,
      "Ġoverdo": 8943,
      "Ġoversub": 8944,
      "Ġoverdue": 8945,
      "Ġoverlar": 8946,
      "Ġoverheard": 8947,
      "Ġlied": 8948,
      "Ġliable": 8949,
      "Ġlikable": 8950,
      "Ġwanting": 8951,
      "imping": 8952,
      "impse": 8953,
      "asonabl": 8954,
      "ĠLess": 8955,
      "ĠLast": 8956,
      "ĠLond": 8957,
      "ĠLuck": 8958,
      "ĠLife": 8959,
      "ĠLosing": 8960,
      "ĠLike": 8961,
      "ĠLeeds": 8962,
      "ĠLAR": 8963,
      "ĠLawrence": 8964,
      "ĠLIV": 8965,
      "ĠLoyal": 8966,
      "Ġbacks": 8967,
      "Ġbacked": 8968,
      "Ġwear": 8969,
      "Ġweight": 8970,
      "Ġweigh": 8971,
      "Ġweapons": 8972,
      "Ġweaponless": 8973,
      "Ġoldest": 8974,
      "oveling": 8975,
      "umes": 8976,
      "umble": 8977,
      "umped": 8978,
      "umonia": 8979,
      "Ġpublish": 8980,
      "Ġdecides": 8981,
      "ffy": 8982,
      "ornia": 8983,
      "Ġgoods": 8984,
      "Ġgoodness": 8985,
      "Ġpublicly": 8986,
      "irest": 8987,
      "usk": 8988,
      "usually": 8989,
      "ĠJoss": 8990,
      "ĠJULY": 8991,
      "ittees": 8992,
      "Ġtables": 8993,
      "Ġtabs": 8994,
      "ĠFe": 8995,
      "ĠFate": 8996,
      "ĠFine": 8997,
      "ĠFoll": 8998,
      "ĠFail": 8999,
      "ĠFict": 9000,
      "ĠFund": 9001,
      "ĠFailing": 9002,
      "ĠFresh": 9003,
      "ĠFirst": 9004,
      "ĠFederal": 9005,
      "ĠFinding": 9006,
      "Ġinsidious": 9007,
      "Ġfares": 9008,
      "Ġfared": 9009,
      "Ġfairest": 9010,
      "ankings": 9011,
      "Ġnewly": 9012,
      "Ġadvices": 9013,
      "Ġadventur": 9014,
      "Ġowns": 9015,
      "Ġgrip": 9016,
      "Ġgrist": 9017,
      "Ġgrave": 9018,
      "Ġgrav": 9019,
      "Ġgraft": 9020,
      "Ġgrimly": 9021,
      "Ġgrammar": 9022,
      "Ġgrunted": 9023,
      "Ġgrumble": 9024,
      "Ġyearned": 9025,
      "Ġeveryone": 9026,
      "Ġeveryday": 9027,
      "ĠGo": 9028,
      "ĠGas": 9029,
      "ĠGot": 9030,
      "ĠGive": 9031,
      "ĠGod": 9032,
      "ĠGree": 9033,
      "ĠGerm": 9034,
      "ĠGrat": 9035,
      "ĠGiven": 9036,
      "ĠGov": 9037,
      "ĠDay": 9038,
      "ĠDiff": 9039,
[...]
